node {
  name: "input_1"
  op: "Placeholder"
  attr {
    key: "dtype"
    value {
      type: DT_FLOAT
    }
  }
  attr {
    key: "shape"
    value {
      shape {
        dim {
          size: -1
        }
        dim {
          size: 100
        }
        dim {
          size: 100
        }
        dim {
          size: 3
        }
      }
    }
  }
}
node {
  name: "conv2d/kernel"
  op: "Const"
  attr {
    key: "dtype"
    value {
      type: DT_FLOAT
    }
  }
  attr {
    key: "value"
    value {
      tensor {
        dtype: DT_FLOAT
        tensor_shape {
          dim {
            size: 5
          }
          dim {
            size: 5
          }
          dim {
            size: 3
          }
          dim {
            size: 32
          }
        }
        tensor_content: "MQ3=p\366\017\275\004/\201;\226\314\213=l\252\t\275%\272\027=\236\345\r=2\007\220=\2548\005=\212\240\234\275\006\362\020=\271N\223=\2422\032=z\231\226=\021\376<\275bP\215\275aj\367\274\245-\022>b&\253\274\307h\234\273\024\026b=\252\220:\275\'\021\226<##^\274\036&\244= 2\205<h\\\322=\370)\256;\333p{<p#+\275(%s\273J\311\027=\363\307(=gp\345\274\302w\t=\277D\247\274\335 J=\016\372\351=\360\326\024>U\316\204\274\\\365O\275\311\250\020=b\334\352<\366\323\007=\352\001\221\275\r\254\035\275\273\233\320<^\\\232\274<\270\244=\230\t\370=\233\371\203<\257\223X\275\213\352K=\364\251d<yp\006=^g\323\273\244\233\220;\004z\346\274u\246\277=\325p\213\275ox\314\274N\216\276=\271P\251\274L\264\266\275\256Dr:\263r&=\355R\231;\212\340\255<\234\034\177=\025l\017>\344\367\022>\256\327\030\275\373\306r\274\205\253\211=~\2136=\335\002\244\273\352\000\350<\177G`=?[\320=\315L\275=\330\376\210\275\325s4=H\002Z\275#\360\222<?\334\277<\272\364\237\274b\311\005\274]\032\027=`\325\3369\024\'P\275\321\334\177=\345Z\265\275_\222z\273-\274\000=\361\370\341<\277\363\215\275\335\242V=\221\035\201\275,E@\275X8e=\354\\\354=e%m=\261\364D=\377y3\272<1Z=\357bF\275qX\211=\001\217\220=1\353\235<n\222?\275\260J;<m\346\212\275\r\374\004\275|\311\301=\207\307\241=\017\336\024=\013\"a=#\216i<^\331\364\274\261,\233=>\317\027=\302\261\322<\245u\326=j\207%=K\366l=\351bJ=\313\233\027\275KY\226\274\216\267\244=\250\007\267\275\035\242\321<\341-\337\274\2318\021\275sD\337=+\301\356=\024u\213=\200C#=c6\201\275~\3625=+.\240=\r\270\026\275\004\255\205=\330F\303\274\034Q\261=yc&<\245\376\n>E\022\212\274\000\236t\275\207yU=v\017y=t&\331\275\030\\\245;\2130\026\274\026\262\277\274\264\241x=\364b\037<<L\333=Z\363\n\275j\250\244;\325:\322\2754g>;\274\n\036\2757\t\220=E\354\240:\352\366\323:\341\366\224={q#>\227?\243\274@\373\205<)\307u<4\0325\275n\214\350=8\244\217<\024\037\n\275\351#\002\275h\365A\275\030\344T<\325\273t=F\213[<\001\2308\2759\343\273=\000\034\261\275Y\265\307\2741XB=\341IS\275GV\203=\302\374\263=\342\211#\274S\023\"=\352\304\273;\305`\360<\324\352L\275\203=\312=\252\014\233\275\301\224\225\275\253\"j\275K\332\233=\327\243v=$\036\004>\243N\267=\233>t\275\301\016W\272\001/\307=\214\226\340=\227\366\303;\331\220\027\271\354\310a=\236\277:<\023\032\277=\360\341\340=6\206\306=\306;\232\274\363\331h\275(!\351\2754\342c\275,}l\275\034\333\277<\222\014R=\346\026r\274\010\013\232\275j\212\223=\252k\317\274M\367\253=\235,<\2741S\365<\005;Q;\217]:=\017\311r=C\0056=\2555\273=)*u=\300?\227<\247\362%=R\267\302<u.\n=\3507\302=s\221#=\304V\032=\360\332Y\273\205j\273=6\306R=$\244\263=E\362\264\274\217\355\241\274z\223\220\275\001:\237\275*\005\203\275\210\006F=\302`h=\207\243\'<\22606\275\247w\237\275\323\004u;\215:\365\275\033y3=\334\311@\275(\356M=\216P\275\274\325\312\247\274\261\367L\275\250\352\300=\261\254\265=v\033\025=\036\231Q\275\255\253\367<@\256&<\334\204\256<\313X\222=L)?\275r\005\223=\216\272\270\274\3453\277=X\263\327\274\321\033{=RuY=\254\342\237=m\3156\275\237\271\203\275\"[\274\275\003[\210\275,\014\201=\255\277<=\3146L<m-\366;\326\255\256=\374Ga\275F]o\275\'8\336\275H\025\221\274\232\306#<Q/\235;p\257\330\273\357\234\260<+[k<&\217\245<v:\230=\263\037\265=\210\225X=\232u\t=\345\200\243\274\341\355I\272\3031\203=\013gK\275\354q\305<\234F\242=\004_\250=\026\316\371<8>\251=\022;\321\274J@\023\275<\334\223\275\345\333N=\257\t\224\2751\333\327\273\323\014\314\274\353r\027<\3667\260<\254P\210\274\332(_:dI\326\274lK\235=\020/e=\212\367\327\271\361\361\'<\222r\253=H\035\'=3\322\005=\037\332\361<H^\316=\330\t7=\207h@\274\212\226\242=8\024\371\273\023\207\254\274\217\036\005=`\303y=\363\240\264=\216\231\230=\3008\224=\237I\364;\205\322\353<\257\217\022\276\035\005\326\275\244\307\221=\222\205;<~e\036\274\243R\265=\377\007\202=\316\3154=\217G\246\275p\204\027\275\253\317\360\275\213\302\227=\354\322S\275)q\333<\346\345\210\273\321:\002=\232/@=\326\264\246=\266\016a<\226\317\225=x%\251<\030\030\255=ky\305=w\305\221\275Z\314y=\260\006\237\274\2611\300;.\004\216<\251~\n>4>B\275\005L\264=ZK\244<\277*\373\275\022<\036\275(\375\246=zt~\275\311\364\331=\r\260m\275\227\225<\275\261(j=\304lp<\002\273F\275\337\t\214<8j\033=\'\034=<.\007R=\243z\257=\356m\342\274\374\363\\=^\226i\274_\216\032\274\332\252;\275Um?\275\007\217\256\275\323L3=\357\021\001\275\251g?=lb\\\275\267\314c\275$\200>\275\340\271\024=\326O\266<G\264\304\274\336Z-=\316\364\201=\235K\234\275F\256\240\274\230C\007=\036\362f=6)t\275\217J\344<B\207\021\274>q,\274\304\004\317;\240\207\336\275\322\3653=\2464z\275\0132\314=\222o:\274\363\307V=\036rf\275\225\002 =\001\005\247=\230-\301=\326\375\207\275\217\0361\274W\232\025\274\265\030\260=I\334\330\274\354j\205=R\221\201\275\r9j\2748\032\314=\000m\244=\235\255b\274S\277b=\036!\310\275\222\264\014\274i\024Z=\036l:\274>,\010=8\223\324<b\356d=\001\270\177\275\205\375\255\275\223\371E=\200\313i\275*\246\020=|\314.\275\217\014\032\274]\314\246=a\253O\274h\253\254\274P/\332=l\342\272=C\033>=5\3350<8\224\253\274\200\317t\274,/\266=\375)I=\374\345\273<c\304\227\2750?D\274 |\005=\353\365\305=K\211\317\274@\323h:\000\266Y\275\336\203\326\275\245\2742\275\006\374/\275~\226\336\274\333\014m\275\370\374\n={;E=%\343\037\275ct\202=\250\r\307\2754.\272=\307\314\212\2754\241\"<f\003\332<`\3556\274\223W\006\275\252%L=l\337\014=n\032\004\275Z G\275\252Je\275cM\302<g\020\177\275\024)\'\275w\352\202=+!\247=%\0350\275\336\305\233<uT\326\274X\271g\275&\222r=A\224f=+B\237\275\tB\203=\273\355\226<\204\245K\275\355\202\207=\346\326\230=\357\366\027\274\267{\312\271\356\277\227=\265\357U<8p3=\014B\212=\240\374\022=\004\316\264\2747u\262=ym\021\2758}\336\273\271cG\275\360\346\023=\272\014\213\275sz\200\274xEK\274\340\257L\275\273\271\t=\024.k<\213J\220=\037I\013;\325\246\261<:2n<+\315J\275\342{\356=\242\316\233=\320f\t\275\010\002B=\373=\266=Ft\302;\226\r\250=X\"\220\275\023V\314=\372\275>\275c\234\227=^\3076=;\263\225\274\337\340\233\275\312\"\220\2756\214X\275\325\242\315=C\206\337=,}\322\273v\325\235=\277\216V\274\301+\206=\274X\316=K\212\205=,(#\275LM\\=\326\211\030=kf\r\275\252\316\305<=\376w=0l\244=W\007\265\270yh\017>\020\201\206\275@\232\212\275\223\032\274=FO\302=.\240\356\274\317o\224=\177f\331\274B\'\334=\346\335\267;\241\240\275=+F\301;\006\003\224=\202\016\025=\263i\302\275NV\242\274\246\026L=6S\366=3\353\244=\361[\347\272\036g\312\273\266\024#=\206\303\277=\231\215}=&\371\357\274R\376?\2754\244\355<\0059\255=\207+\352<\371\353/;\236\004\232\273\315\220\237\275\356g*8\243\023\007\275\033N\244\275\325\226\r\275\311<\267=\370\nD=\177\307\272=\210G\262<*\'\t<\245\022s<C\331,=\"A\360<\211\364\236\274o\305\216\275n\035\212\275tm`<\325\246\216=\032\211\370<y\377\362<ZU\321=z\265\026=\333\210\211=\362M\340\274L\327\323\274\357\364\202\275\223\260\310=\366z\310\274\237\363\033\275HV\272=\257\232\274\273U\267r=\211\361\327<\033\321\210\274t\2630\275\330\003U\273J\331\031\274\277\234,<\223\013\366\274\307b\204=\337\242 \275\326e\034=\325I\177=%\371O=\207V\210=\305w\324=\3076|\274\003\003\345\275\316yE=\255\215:\2759\371\276=8N\345=\264\322\016\275x\330\200\275\006?Q\275\235\355F<\207.\313=\322\305\244\275=\257\021\273g\027\260=\240\233M=\233\370\370\274\366\036}=\345\261\262=W\361\"=\230$0:\001\237\247\275i\207\004\276E\337\322=\211\306\253=\267j\270;r\355i=\002\003\222\2756\007\316=\302\357\303\273\234\333d=\315h>=\346\364\313<\272\017r\274\331\273\007\274\246w\226\275\234\256\310=\240\301\231=R\n\014\275s\357\262=\032\007\212\275\231F\207\275#\023\252=\235/s\275F\314\253\272c[Y=w9\022=\213\256\002\275\231\310%\275\364\225\022\275FQ\252<\031\3565=\216\3329\275c>\342\275\230\250\021\275A;\016\274\363EB\275\262\332\220=\370\321\312\274<L\026=\351\363\351<\376\203+\275\377\256\346<\375a`=)\350T=\351\000\200\275\003k\324\275\376f\212\275ul&<\200\355\260=\220\243s\274*g\230=\263\271\333\272\212\267U\275\003\036S\275Mh\231=\375\2616=\372V)\275h\362\271<+\224`<\207\316u\275Y\027\005=\250\020\200\274\201\000\334\273 \340\260\275<\276;\275\313u\265\275%@F;\204f\241\272z)\325=\313Z\325=\341_\224;\357\232\300={\312\371<\367\345,\275\005R\206\275\t1\224<,3\222\275\363m\222\275D\t$=E/w=\030M\010=@\302\n=o\000\202=\302\227\000\275w\222\031\2758\376\016=\345\353\345\274\2542)=T\202q\274\316\010\033=\210\350\262=2&\272=(\302\3479[?t=\252ZX=\222\301\321\275\321F\210\274\022\037\320<uMq\275\033+\341\274\354l\276=\376\373\273=\014E\233\271\352p\273=\030\235\313\275\370\244\215=wQ\341\274\300|\005=|\031C\275G@\306\2754\344N\274\273\035\001\275\220AM=\260\006\036\2725\223\232=\017\223\025;\004\005Y=\254z\356\274\371U\277<\203|\354\274\306N\320=\227Q\324=S\311[=I@j\275\241\201\241=}\205\301=\231\244\363;N\225\244\275]\254\313;\334\003\\\275u\377\035\275\004P\365<\"(\221<\316dC<),\240<\361\016\023=\215\314\300\275s\323p\275\177|\362<N\343\035=\224\030\221\275\330\006\265\274\214,\261\275\210u\\=b\025\035=\027\212C=MJ\315<\037\203\004=\334\2375\273\310\227\031=Z\330?\275S\247\225=\321\217\227=\001\277\323\274\243\347f<\017\2663\272\036\014\217=\245Hg=\246y\276=|\\\364\275\205\304\201\275\263wI=\367\235\224\2740.\351\274}\346L=\276w\r=x;\231\274\346\313&=`\000\242\274\347\202\032=\306D==\013\363\213\274\340\2748\275\361\336\335\274\206\233\202=\361\365\376\2734\320\345\273\240\3639\274\030|\031=\217\203\301=* \260=\022\233r\275\260PV=\205B\214\275\177\301\274=\010S\201<\220-2<\346/\375<\017\337\355\271\306`\246=\210Y\302=\264\002\370\275\262\340\013\276|\024\257\275\372-\226=\321\224m\275k\274\237=\337\267\t\274\2623\030\274\363\032\306\273V\351\007\276&~\022\2758\270\336<\376n\266=Wx\355<K\205\020=\347\035\244\274C\034\276=\"\272p=\247\350\276\274\246\264\245=\313\203\316=b\030\241\272\'h\244\275\214e\252=\245\252\034=\363\240\352<\341c\231\274Y\363\205\274\033\356\037=\204\217\321<\2574\202=\177\032\005=\023\345R\275\003\000\333\275\333\264\346<\231\376\305;~@^\275~\232!=bi\262\275\335\033\226\275\337\026\204\275\272:B\275\227\226p=\2376t=\224J\234=\377:\025=}K\023=\343e\352\274\351\354\275=\264\307\336;\025 \200=\0359\343<.T\316=\270g\251=\033\371k=G\363\030=\201\333q\275\246\215R\273\323\323V=\206\320W\273\230\255\221\275\336)\204\275\252\324\251=P\032V\272\r\305\254\275\013W\215<\325t\270\274\334\t\275<\324l\r=\024J\267;\351\n\021\275W`\311\274\345\342\273<$3\322\275|\002<\275)\216\331\275LI\035\275\377\356\230\275\344\261\314<7A\024=A\257\215=\'z\202\275\353\310\351<d\006\210<l\261\227\272}_A=\326\223\206=\030ra\275K\350\232=\300\302:<\2205\347;Q\237\024=F$z\274\340\224\265;z\373\\\275\231E\215=\236 t<D\221\252<4\t\206=\210\324\000\275\250y\211\275\036 \334\274\200BZ=M!\346\274\254/]\275\322\203,;\256\361\201=\266rF\275,\226\000\275gHW<\332\305\315=\\\232x\275T^r=(\320\331\274\227\265\220<S\330\352<\256\t6\273C\222%\273\314s\334\274(\335\310\274\361\216\017\274\361\207\006\274\217Nu=\321\322\031\275Q_\275=m\240\315\275o\215n\2750f\274;{I\253=\253H\261=aO\225=\352\"\036=\006\305|=\2761\226=\303f]=\216k\220=\250K^=\355\273\202\274\377\316\356\274\026\334\344=\367\325\335=\305\312\301=\337\207\330=[W*=X\201?=*\203\364<\357(\211\274\214d}\275\004\300t\275\307J\253=>\026Z=\275\3346\274/\234\031\275\360,q\275/[\346<\\\177\216=\375_?\275e\306\357\275\27727\275\232\010\017\275\033\3456>\274\276\205=\276iL=\nY\'=@\331\256\274\214\373\220\274\030\224\343\274\322\347\r\275p\366\371;\236)\313=\206C\034=\344cS<\343\tJ<Y\037M\275\307F\325<\211#\224\274\306\314j=\204YT\275\311l\203\274\024.G=L\263\'\275J\253d=\364\032\306=\n\224(\275VTg=Yr\235\274\2610\237=08g=a\022\222=`?\221\275\310,\253={\272\362\274\006\346/>{\263\254;\"\0074=\204,\023\274\211\200\336<R\340\332<\024+\022\275\276%R\275\'a\246=B\177\\=<k\246;\200\007?=\354qQ=\022l\245=\214\261V=\313@\221= d\030=\276\311\256=Q\325o\275(\215W\274=\027,\275\0262\200=\226\221\336=\223\356\343<)!\233=\266\373>\274S\276\371<\031\232\031\275\036\306\016\275\351Mh\275\331\304\314\274o#T<\261\201\312=@v \275r\301r\275\275\356\220\274:\031\373<\204\240\022\274W\031\215;\3327\261=\367@\246=\001{\266=\233\247\267=%(\276=\033P\257=?\031X=\376\010\256\275\304\374\241\273e\216l\273\350\256\246\275e;&=\353\004=\275Yn\201=\354\0260\272\014\014\342=%A\027\275\\\373)=qc4=\344\177\'\275\373\227\300=\231\035\240<S\n\325\275\342\037\275=\027x\002\275\341?\243\273\357\002\341\274T\005\251\275G\220f=j\324\201<v\217\027\274)\246j=\241\360\224=Y\007\026\273\336\237c=\363s\237=r-E=\342\261\315=\376b\235\275vM\247\275\243\206\357\274.\\n\274\225\254\032\275\341\\\222\275\035y\304<l\232\034\275I\003\033\273\302\365b\274\265\331X\275\324\351\311\273\225\334E\274\0306\356=D\213\246<\305E\252=U]\234< xs<\354t\344<(\240.=\277\355\\=3\242\271\275\234.M<,IP=\274\340\353\274\326\022\302;.\341,=;\341\033\274\314F4\275\367jj<B\335\327=ft\316=\022[5\275[s\312\275\t\t\366\274\251\034\026\275 :\257=\231vs\275c\320<=\364\311\213\275\223\350\246=kt <\212\234G\275\334\353\315<\242E\030=\216\264\341=\317\021?=\267\325\247\274\203\010v\275\304\367\276\274\355t)=\260x\252<\333\346<\275\213`\366\273\002\250\232=\254\337@=\245P\275<\300:\202\275\304}=\274\214\311\374<\274\270\004\275\177K(=\013\267\221=\253\351\"\274\216\201C\275+\021\224\275\365gz\275\330\301\356<\001\004\205<\343\370\327\275#\001\243\2731\362\025=\t\240\231;<\261\303=\022k\023\274L.\345\274\261\322\216=\213\340\372\274\020\033\312:\036\215\227=\030\\\004\276\2409,\274\255|\025=\316~\263\275[\317V=\256\374\377\274\273Y\270<QX\001=/u\003\275\321}\235=\250\364\226\275\226\271\274=\334o_\273-E\325=;\221W<p,\363=\212\030-\275{\346\331\275A\241\243=\260\226w=\031\256*<XO]<1/\364\274\327\273%=\244N\227=\220\361\204=f\351\200=\300\340\205=9*\014\2754\231\003\274p\221\321=\266\205\244\274\345\220\360<=\351v\274\343T\245=K\362\000\275\237\332\237=\322\366,\272\2169\211\274\\Lv\274g\307e\275g\245\317\274\206-\031\275$\337[=vg\217\275\022dY\275\253\275\376;\275\342\306=8\303\327;\272/*=:=\223=z__=7xk;\275\223\270;\240\235\206=\305\"c=\322X$=\017\231\303\274\303\326g\274\205\203\261\273\320\336\255;~K\304\274,\024\375\274\316\216\304=\335\363@=FB\212;\364ki\275\330\007\201\267*H\214\275\312\326\304=c\376\241=\376\2148=A;\004\275\014\321\021\274>/\210=$\321\322<\225L\255\275\020\264-=O\242\222=n\021c;\r\376\375\273\030\261\020\275\323\367|<\322\030e\274\203\0374\275\261\306v\274\017\303\t=LNc=\324n\256<\312ar\2742|\261\275Tt\030\275*%\272\2748\263T\275[.\267=\003\261\030=|\323\004\274Y\233x=\354\321\025=\212\351\224\275H\252\225\275\273K\005=\236\207\200=\247\r\300=8\260\217=\327\330h\275\2255\260<\363\201\005\275k\000H==]H\275\355\001\227=\016\023\370<\014\356>=S\022\344\275\304\216Z\275\033\177\007\275\255\3004\275Y\215\263\275(\013/\274\363\330\010=\206\274\303;\370\202\005\275S\300\227\275\332[\n=T\304\367<\202\264\246;\234U2\275D\275\272=\204\220\221\275<\300\273=\245\006\310=\220\346\264\274\301\341\353<\356\004\275=\366$\021\275t\322$\275E\236\362\274\206\275\255<\361\223\007=\273\355\223\274l\r;\275\242_\033\27501\236\275\320\377x\275\273\302\305=\020\257=\275 Ll<\375\311\010=\026\362\360\274\267x&:\333\320\243:a\276\013<\304\253\226\274\376\2214<\210\333h\2743\026O=\254\000I=\003\265\267\274\210\031~;<l\014\275\306\272\302\275\332z\237=\024\217\373\274\010\230j\275\334N\211\274>{\350=6I\263=F\346j=\3570\262=\366k\236\274\265\344\327<\331\225\240\275kE\217=|\240\213;O@\251\275rgT\275\337\366\211\275\372^.=`\374\014<\235\311:=\311t\345\275G\350\n\276\364\204\215=\354YH=7\005\230=\325Wl;:\2542\275v\255?\275\025B\032=\265!{=u\304\375;z\013\202\275\267p\352\275$\205\206=,Zi\275y\204\035\275X\372\301\275\244&\205\274\375\030\204<\375\217\266\273\310\254\206=\225\000\227=\033[\202\275)l\266<\206\340\205=x\352#\275g\300}\275\256nl\275\302\271\031\275l\272\034\275+g\243\274y\376\254=\022}\004\275#\312\277\275\266\346\251<\263\342\366<\024\256\017=#\244C=\322\367\r\275{\212\302<\322\363]=\300\026\226\273\206\331\206<0s\227\275\004d\271:\373\300\374\274\201\277\310\274@\006\000\276\242\302H\275\373\345a=2\220];N[`=\363}\226<\366+W=EP\253\275\234R\355\274\036\252\026\275\277\206\367\274\013\257\022=g\354\213\275\374\341\212=\307\261\t=\232\310\027\273\'~\263\274df\213\2759\214\210=\361*r\275\360\376\006\275\311\345\005=\267\3010\275\307\3617\275\265\330?\273\330\034\225\274\330LI\275\006\014\215=i\214{\275\037\233i;\350\225\360\273\300\363\232=\362\232\004>\373\302\346=\031\366\201\275\023N\325\274\2072\332=\306<\036\275\345\035-=\0364\023\275\'\'[\275\305k\005>\346k\347\274\200K\333=\337\341\230=l\361\275=\225\232\320=\301\377)\275z\233\241=\2748%\276B)\303;K\307\'\275\261\311\211\275\207{l\274\2704\367:\346\013@\275\034K=\275\202PS<\360\372\371\274_\244\257=\335Z\271<\177\311\350\275\202\004X\275\326\266f=\210\314,>0\021\300=\254\342\025=\253W\206\275\360\374\232<\316\007\260<=z\244:\017B\004<t6{\2731\225\r>\355\020\366<\030\373\351=/\206\025\275N\243\005=Q\232\312=\325\271\250<\204ZF=\335\017\177\275\0178D;|[\243<h\215\344\274q\330\034=E\230\203=7C\313\275\210\235\214=%\224\235=\023\037\270=\214\034\350\274\344\315\224=\221\354\250\275\\\303D\275\275w@=z\226\367=\326\017\r=\332>>=\310\271q\275:|\000\275\031$\235\274\336\030\317=\241\311\350\274\017\330\270<\357\031\034<\004zy<\240\330\246=\313\274\234=\037\'\006<\315t\261<\027\034\235=\nh\372;\334\204\251\275\206 :\275\360\034~\275\356\341L\275\215\233\247=\"\330\"\275\245t|\275\n\377\260=\356\256y=>\341K=\251\242\210=\305\3234\275\227\326\326\275E\225\"=\356\326\206\275k\233\352\274\014\226\247=\310\212I<\344z\241=\223>\233=\376\304\345;C\302x=\312\267\314=\016\020\267;\234p\345=\244,x=\245\354\340=\355\213\245\274\243\334\311=?\213\'\2753\266\210=\261\335\244=\241h\206\275\321\331\324\274\272)p:I\207\300<i\323[=?\204\261=\002\324\201\275\346n3\275\256\315\261=\220\373\256=\367\236\314\274\007\205#=\206H<\276{t\207\275d>\356<\346\177e\274T\032\021>\230\265\372\274\337\n\265=\244uB=r0L=\215\365\252=\203i\032\275\352p\316;B_\224\274\024\n\226=\352\320\013>\265\207\272\274\340\264\245=f\201\233=^\226\t\274\215\034\303<\023!\356\275\330\177\372\274\245a\003\274\277\2360<>.z\275\027\233W=\362Y\207\274\321\264\230\274\305\216\250=\035\302\345=\370\242\330=\376Sr=b\325\247\275\201,V=\302\334\203\275=}\346=\336\0268=\316\010\225\273h\245\271=]T\266=\227\324\010=\367E\261={8\207=\241\225\233=\336\375\322=b\360\211<E\242\300<Z\376\204=\300\3518\274\301\307\267<\006V\035=\366\013\266=\240\223p=\272\235\002<K\217\241=w\263\010=\367i\017=\264\351\227<\002\340\202\275\347\274Q=A\223\024\275vS\334=$y\223\274\375\251b=\262\371\254<$\323~\275\2116\364<~ \246\275\237\013\215=\022\357\273=\005\020\006\275\335\364\252<\001F\020=\365\013\242=\256\247\314<\372\251T\275\373~Z=\036\345\237=\213-\350<\304\372\232=\346\260\320=\355\234\210\275@\233l=\253x\t<\350T\264\275\013\033\004\276\301\016G\274Fa/\274\210s\250=\224\355Q\275\201Ug\274m\256\020<\271\272\270=O\3334\275\024\220\305=v\250\3349\277 \300\275-\354\262=\245\267\030=\343\036\246\275j\372>=t\313\241=l\2754\275\222@x=\241\032{\275o\216x\275\214\305\375\274\263\316\261<\277\343\023\275\316\006\342<\331{\213\274o\362B=5\024#\275\262\367\220=\225\215\233\275Oi\010=\225\270\257\275\275\351\004\276\'\003f\275b.\274\275\301\315D\275\237[\006<2\322\274\275\253\344\223=\r\303\013=\250\377\255\274?\301]<%w\242=\037\364\336\275\355\313x\275\021P7\275(\201\037=\021@#\275\201\375\304=\310n\214=\260\034t=\211\321\305\274\237\275w=N\035\207=\354\333#\273\373[\240=\220Z<:R\206\345\274\270\000\303\272L\243==\307x\241<\377>y=#~\232<P\3056\275mum\275\352\221\215\275\334O\206\275\250\326\207\275I\356r\275\035I\266\275ZU\326<Z\354]\275\304\353\345<\t\367\273\271)\037$=*\353\210\275\362\346\356;P\344\264\2741\234\372\275\030\242\202=o@\323=\265\376\254=AHL<\204\377\010=\366\277\335\274$t\261=\334\255b\274\024\242\241\275\313\302\225<\261\3735\275\336A3\275@\341\006=\207\360\221\275TC\246=9+\212=\030\213\203\2755D1\276\030q\366\274\334\365\035\275\332\215\272=S\246\242=\"\317\035\275\342f\254\274\026\204\207=\257\022\314<\\@\321=\215o\272=v\253\261\275\245\212Z=U\340|<\014\352&\276\243\034\201\275m \210=\364\033Z=\262\272\361<ak7;\002\347\246\274\010\266\250\274&\260\310=]\014>=2\253\003<\252\304.\275\327\251\263=\257#\t;?\026 \275d\344\326\273\326\267\306;GI\014\276\224J\223\275\311+\276=\250bK<\025\017\241<*5\025\275\372=\221\275e\363g\275G\036\241=t\205\206<b&\266\274\227\310\240<\216\214\254\275\254\035\014=\311J\312=\006G\337\274\367\000?\275\364\251Y\274\220+\004=\310\372\031=\231\005\276=f}\351<=\000\252;\350\371v\274{\347\265\275\277\215\321\273\265\367\205=\266\217\216<\026\033\331\274\307\361\033=\241a\247;\342X4\275W\362\303\275\220\253\007\275L\357\201\275Gq\023\275xY\006=\202\020\216=\017\351U=\275p\324=0\310\022\274\347lN\275\003\365\252\275F\263\201\275\320\030\306\274s\003\221=\213\226\255=Fa\363\275\335\252\t;\273\357\330=i\350B\275)\226\036\274\001S\010=\265C\205\275_9\206=~\261/\275c\251R<!I\366\274k\331\023<?\2449;\2123\357<\177^\253\274\247S}\275\330O\300<\013E\n\276g[\034\276W\267\263=WB\307<\354\314\240=\327\321g\275\352k\211\275\334\362N=\241\033\203\274%\016\230<\342\336\276<W\213\260\274Fl\003\276\017\034\304=:\253!:q\005\224\274\340\311\252=\320\000B=R\277\255\274\344\357\332;\274%\030\274\002\252#\275\002-s=N`\351\274\217J\201\274\305V\237=\360a\316\274kvR=y\240\266=\256\030t<\3162n\273\n\377{=}r!\276u\177A\276\213))\275]\320\201<p\356\016<\2557\212\275F\262\253\275C?\316=\362_\032\275\255\034\260=\220q\203=\324\204\251=\r\032>\276\016q\263=\214\nV<\017\373\255\275\027\277V==Q\016=\265\222\032=G\303\244=\354_\365<\215\010\234\275]\315\261\275\332\301a=;7:\274d\316\025\275j3c<\355\3129\275K\320\257<\203\357>:\3626\267\275\200\266\236\275\320\331}=\276\370s\275s\033t\275<\224\235\275\002!Q\275\203d\034\275-t\020\2753\365\233=\216\206\213=O\300\204\274\213P\265=\031\227L\275\267<\306\273\230\345\210=\213Qn\275$,\032=\010\000\371=?\352\227=\242\321=\273\224\267\236=\327\266\311<\034\263#;w_\226\275\342\335\216\275\356\026\024>\325\344\373\274f\010\303=-XP<\014\252X\274\016\357\266=\337\337\307\2756\375\224=\024\311\304\274\313E.=\0255\204\274\310\340)\275\3157\221={RV\275\240\303^\274\260\366$\275\346\016g\273p\261u\275\240_\217\274\255T\232=9b\211\275\315Ug=^x\371\274w\323\307=G}\005>nhZ\275?B\212\274\222z9\275)\331\211\2750:U\275\220ya\274\032\r\253=%\340\225=\027U\016\275X\352\365=\264\354\364\274\251|\021\2740\003#>\260\214\211\274\267\036\304\274\2272\177\273N\237\232\2743\361R=`\223\202<YLP=@:\221=Y\023O=/\365^=R\035\246=\352\004\213\274/\025\312=Pv\227<\324\001\037=\306\212U\275\001\215\203\274\314\361\327<N3\003>\')P\274il\002\275\351k\234=\327\222\230=\374\357\257=0\332O\2756\\\355<<\004\264=\241\377\232=\361\020\004>\017\350#=\362\215\301\274\367\007\310=z\236\020\271\223g\232<\n\377\257=%\376&=\237\000\205\275 \301\261\274\377\303\375<S\212\266\2749\006\262<|\261\264<\271\3116\275\031?\241=\223.L=\253\244P\274vS@=\235\372\177=\262\371\240=\200\247\237=\226@\t>\232{\331=\t,:=o\032<\2758\346\227= >\032\275\032:\211<:CD=\3322\265\273]\nz\275Y\333\346<\203\340\'\275\327\277\013<\306\337\226<\224\346\257\275\365\256\255=\0246d\275\210{\224\275\211\372/\275\037N\373\274k\177$;\3151&=M\035\333\275\275_\302=\342\266\306\274\322\330[=\366\313\301=/w\333\274j\350\253\275\031\035\341\274\330x]<\321/\224=\330\325\206=n\025 =\001\014\231=\353)\213<\017!G\275&\214q=4\3225=\255\037\335;\001\304\313=*\030\005<^v\002\275q# \274\235\260_\274\226\346\376< \327\315:\016\250Y=\3579\202\275\253]\017\275B\323\244\275=\245\247\275\215\335\212\274\021\220l\273f\025\301\275\226-&\275bly<F\260:=YI\216=\031\022\312=\353~\270\275\275{\245<\313\360M=\312\257\245=@\302L=\261\001]\275\377{\210=D\002G=8^\241\275\211\"\262\272r\275:\275@Sp<Vu\020=\344:k=\337\331\341=A\240\253:\205O\302<\006w\205=\225,u=\234X\310;\321:\302\274\200{M\274\247As=\372\361\302\275\366)\374\274c\000\236\275e\341p\275\013\302\256\273\201\273\004=$\002-=\036\236\017\275\245A@=\023\274\203<C9\202=\232\221\351<A\006\036<96\275<[\363\000>\312\2614\273:\335/=\0233$=r\215\227\275\345p\217=\344\016\300=o\267\235=}\016\'\275\262\022\265=\243\004o\275@9\263=\212Y\262\272\022b\265<l\177\356;t\312H=:M\227\275\024\010\204=Eq\253\275\'\217Q<n!7=\017\261\007\272\2130K\275\020\224{\274.\314\306=p*\212=\3112\221=\364\312\337<5\377\304=\022\"\245\274\275\016\213=\212\360\255=\217\206\327=\257\230\025=,=R\275\347o\035\272A\274}\275\210$\253=\004\316)\274\240\206\234<\021@d=K\024\211\273\004B\346;\325x\267=^\220\032=\260\243\326\274;\031\256=\322_\206\275=\267!=]\235\357;\274\2335=o\274\303=j\365c=\273\324z=\362!\314=7\027\200<\333h\211=D\003o\274\262\344\242=\305\037\257:)\rJ\275\024+n=\357\370\253\275\261\320T=thJ<muG\275~)2=-\3037\275#\014\215=\363\2269=\366uK\275\215u\252<\000\352\270\274;\023\336<\212:\n<Qq\372=\352\003\017\275\016~\320=\375\255\264\274J\277q:\004\006a\274Y \020;Iw\206\275\267e\267=\331\373\212\275[F\244=\340\226\206=\270\276+\274\265^\315=8J\036\274\\\270\315<\020\036\216\275\340\206\026=I\016m\274Y\364\362\274I\024\263=\244\305\242\274\322\317\256\274\262\261\337<\033\233\233=\007 Q\275\252\243\252\274\352\241\336\274,\036\324\274e\177\005=\362.f=p\220\'\274 \r\322=J|\272\275\217$L=\242\026\270=\320\330\370\275\372\213\267\275t\272\327<Y\320\300<\333\014A=\355\225\255=\332Yh\275E\323\210=\227\326T\275\223fv=\204\007<\274\361\313\316=tR\037=j1B\274\226Q\316=\233\003\255\275\t\243\202=\312\033\336\274-\0001\275\3438\202<\325\344k=r\030.=C\031\363\274\005h\215\275p\325s\275\213\353\375<8\267}\274\215\001P\272g\346]\274\325.M=\030\362k\274\322\017\330\274\023\334&\275\221\213\343\275\002\013\025\275\223\026\027\275\237\221\002\275\014l\215\275?7\203\275\351\020{\274Y\272N\274\211\273\210<g{x\275\026\360)<\304x\312\275\302\006e\275\253\2542=\224\351$\274\346w\203\275Ty\323=\322j=\275\262\034\030\275z\001\226\275\315\233G\274c0\227\275,T\355;\260\272W\275.1\343\274(e\227\275\346H\203=V\007,=\352\250\235\2751\256{=\221{\242\2759~\237\275f\205M\275\224\002A=\230V\237\274\032\034Z\274\307\331\205=\350\340\362\273O\342\346\274\346Z\210\275\335&\201=\374Y\'=:\003\013\274\341>,=\226\013k<\272\027F=\3421\205\274\003\207\006\275s\227\256=\374\305\220=C+\252=\000\371\007<\237\2572<-S\034\275\017\215\000=\205\231\222\273\352\234\035\275\205\327\243<\243\373\255=,YI<\026\363\225\275\332\371\r=\346\306Q<\305\201\016\276\315\355\003\275/\347\230=\274\244l=}\235\023\275\006\210\226=\254\266\354<dW\327=\310$\207=\342\371\355<\334\371h=\361wy\275it\005\276\210\377{<C,\277=\001\205\024\276\264\276B\275\210\027p=\260\304\304\274\205\253\322<\373:d\2756/f\274E$i=\tl\350;\233Jy=\200\366z\275\001\275\000\275i\027\222\273v\241\351<\256\254\214=R8\022=Q[\242<d_)<u*\320\275\223\022\224=\256\211]=X\376\t=\201\341i;\367C\"=\235\334\303=\350\311?\275Qsk=\376\2735=\232\203\272<\340\034\337\2749\332\257=E\251p=h6\021\276\201\370\246<\343e\325\274\273\177\031\274)\000\227=w\327\273<\037\033\n\275\344%\300\274Q\247\213\275\254\353\026;\006\021V=\336\221\331\275"
      }
    }
  }
}
node {
  name: "conv2d/bias"
  op: "Const"
  attr {
    key: "dtype"
    value {
      type: DT_FLOAT
    }
  }
  attr {
    key: "value"
    value {
      tensor {
        dtype: DT_FLOAT
        tensor_shape {
          dim {
            size: 32
          }
        }
        tensor_content: "\002*;\275am\316<Rj\003=p\272\321;\315\305.\275\006\'C=\004\035B=\247\225\245\274\350%\263<\257C\342\274\374A\036\275leW=\364j\324\274@@\000\275\010g=\275\020\001\037\275{t\037\274\375F\202=\375m\354\274\314l\374\274\274Bc=\221^\361<\356M\030=\246J\037\275&\211\333\274\247\357\255\274\355\r\341\274\265\243\220<\232\002\344\274\033_\026=\t\032\355\274\006A&<"
      }
    }
  }
}
node {
  name: "conv2d/Conv2D/ReadVariableOp"
  op: "Identity"
  input: "conv2d/kernel"
  attr {
    key: "T"
    value {
      type: DT_FLOAT
    }
  }
}
node {
  name: "conv2d/Conv2D"
  op: "Conv2D"
  input: "input_1"
  input: "conv2d/Conv2D/ReadVariableOp"
  attr {
    key: "T"
    value {
      type: DT_FLOAT
    }
  }
  attr {
    key: "data_format"
    value {
      s: "NHWC"
    }
  }
  attr {
    key: "dilations"
    value {
      list {
        i: 1
        i: 1
        i: 1
        i: 1
      }
    }
  }
  attr {
    key: "explicit_paddings"
    value {
      list {
      }
    }
  }
  attr {
    key: "padding"
    value {
      s: "SAME"
    }
  }
  attr {
    key: "strides"
    value {
      list {
        i: 1
        i: 2
        i: 2
        i: 1
      }
    }
  }
  attr {
    key: "use_cudnn_on_gpu"
    value {
      b: true
    }
  }
}
node {
  name: "conv2d/BiasAdd/ReadVariableOp"
  op: "Identity"
  input: "conv2d/bias"
  attr {
    key: "T"
    value {
      type: DT_FLOAT
    }
  }
}
node {
  name: "conv2d/BiasAdd"
  op: "BiasAdd"
  input: "conv2d/Conv2D"
  input: "conv2d/BiasAdd/ReadVariableOp"
  attr {
    key: "T"
    value {
      type: DT_FLOAT
    }
  }
  attr {
    key: "data_format"
    value {
      s: "NHWC"
    }
  }
}
node {
  name: "leaky_re_lu/LeakyRelu"
  op: "LeakyRelu"
  input: "conv2d/BiasAdd"
  attr {
    key: "T"
    value {
      type: DT_FLOAT
    }
  }
  attr {
    key: "alpha"
    value {
      f: 0.10000000149011612
    }
  }
}
node {
  name: "max_pooling2d/MaxPool"
  op: "MaxPool"
  input: "leaky_re_lu/LeakyRelu"
  attr {
    key: "T"
    value {
      type: DT_FLOAT
    }
  }
  attr {
    key: "data_format"
    value {
      s: "NHWC"
    }
  }
  attr {
    key: "ksize"
    value {
      list {
        i: 1
        i: 2
        i: 2
        i: 1
      }
    }
  }
  attr {
    key: "padding"
    value {
      s: "VALID"
    }
  }
  attr {
    key: "strides"
    value {
      list {
        i: 1
        i: 2
        i: 2
        i: 1
      }
    }
  }
}
node {
  name: "conv2d_1/kernel"
  op: "Const"
  attr {
    key: "dtype"
    value {
      type: DT_FLOAT
    }
  }
  attr {
    key: "value"
    value {
      tensor {
        dtype: DT_FLOAT
        tensor_shape {
          dim {
            size: 3
          }
          dim {
            size: 3
          }
          dim {
            size: 32
          }
          dim {
            size: 64
          }
        }
        tensor_content: "\016\254\200\275\227!I=\305\375U\275\212B]\275\236`$\274\363E\302\275\3231\026\274\363Xx\275Nn\312\273\322\233\211\275\303\266\316\275g\301\222\275\302\200\201\275\312=\327\275\235\302\370;\027\2233=\272?T<\241\346k<1\371^\275\0237\270\275\203\311k\273\314\372\210\2755\367\022\275\310#\205=\252&\362<\204\212\243\275\330\241\250=f\373o=\034\3022=\255\346\256\275\313\207\375<8\352)\274}\021\224<\207.\352;C|#<\321 r\274lz\325\275\2249T=\342\3200\275\347:\377\274@S\213\275\214\210\232:\352\332\374<\246;3=F\225\204\275X\347\314\274\n\256\214=_\252\004\275\000H\357;\n_\223=\363_\270=\335\354\314\274\242\036.\275\216\0260\275\374\334\\\2758\3645=\354\216\271\274\200\202\232\274\255\377\242;\000b\377<+\363\010=g\346C\275\225e\010=\245\240/\274\377$0=&\345\253\274\006\370\t=\332\217\207\274\352\240\227\273\277\306\326=\022{-=\037\2032\274\366H\247<\355J\t\274bu\201=Z\314\370\275$1\254=M\242~\275\336\315\273\275\336\337\377\274\327\036\255=fH\301\275\335\331\325<Vl\340<p\036X\274\3562i\275\373\210\001\271\275_W\275\367O\305\274\370\346\235<\336\340!==\014K\275\336\002X;\352\236\001<\367\250\244=2\254]\275\257t\246=g\233\305=\016\376\235=\371\020\007\275\027\031\002\274\'N\200\275\307I\273\273\330\232\321\274~\305q\275\025!f\275\302\270 =}\370\244;\332\010\307\274ax\276\273\004\333\315\275\232\371<=\215pG\2757\376\022=\t\"\001=\336\306\300=\362x\214=\305y\204=[2\014;F\023\230=h\201\332=\320C\214=\364\241\276\275\266\301\216=\243\341\223=\307\221N=Ju4=2k\255\275\243\203>=\307\270\242\274\\z\320=\205\2661<\313\273\212=\310\260H<\342_\310\275Y\003\013>\310\372\270=%>\235\275\363N\323:CZA=\254\235V=\035y.\275\2746\237\275\350(\233<+\250\246\275f\221\334\274\326\036\037=\017x(\274\304\013\364\2744W\177<\014`\374=\232**=\257t\003\276\177\216J=\246W}=\2715d\273H\024\203:\273\010\274=1\207\003=\314w\341<\324\022O>\222\250\240\275Yb\323\273\332V\307;\2545\272\274CB\374<\021p<=}\200\373<s\306L\275 \004H=\036\013\334=\0139\251\274/\256\221=]\203{\275\377\013\014\275\340\021\006\276t11\274z\206\224\274\363j\t\275E\363#\276\037\323\026=x\343\274;6\320\355;J\356o\273\312\2644>\303g\273\275\n\276[\275$#\232=\271\204\345<7o\014<\241\017\373<0\223\262<\325\375\370<|A\366<\031\340\237<\016\272\277<\362\037\305=\326)\216=\030\2248\275\320\312\006=\207\342\016\275\"\221r=%\214\\\271\253\205\221\275\376\301\211=\256Mv\275\303\356\227\275\034j\331\274?>\371<ZV\200=\211\302X\275\276`^\275O\311\264=#\027p=\316G\037<\177Ks\275\036\210\177=:\262\234\275\000\353B\275 Q\332\274\351&\261;\346\301\364\274\025(\203\275l\301\221=FgU=\247\312\377<\206\327\233=\326\327\232=\320@\270\275\177\353!=\211\344S\273T\177x\274P\242\243;\204|\235\2750\273h\274\336{#=\002\352\217=\003\037\233=\237yv\275\342\215\250=\237\354\301\273A\300%<\366\035X=\206\332h;V\376\213=\234lS=7?\277=\371\3516\273\230k\221\275\306_/\275\0277<=RUT=.\371h\274\320\251\200:\361\207\213=V\027\035<\\\307\016\275C.~=\216\375\016=\270Z\t<\022\357\203=\213\354h\274\360\243\021=\315\203\251\274\241\212\210=\334\324\177=d\323\276<3\204d\275]tR\274\003\033\324\275X\ry=\355\n\254=\331\321\220\275\035\266\014=\020\250\371\274Sk\372\275\025\027-\275\244~\'\274,Ns\275\002\324\242;\345\240\010\275\224\210\255\275\304W\014=\006zd\2759\346<=\265fs=\351\321\351<\013B(=\221\362\212\275\376\304e=#l\204=\332\337a=\370\360@\272\227j\276\2749i\005=3\034\361<\013mx=\207\217\202\274\236\377\367\273\026T\031\275YL\264=u\234\264<l\362/=EJ\331\274\257i\021=\222M\225=5,A=\277\322Q\275\221\213\300\275\263e\002\274U\207\001=\341\3332<4 \246;0=\027=\014Z\355\275\2225\020\275\317\351\264=b\365\241\275\003G\035\275\037!a\274(\303\225\275\273@Z=I\244\223;\206\306\202\275\rt\033\276\356W\220=W&`\275\331b\010>\364`\257=\2368G\275\217\014p\273\330F&>\305\300\353\275\363\202:\274\017,\030;\006\347d\275[\'\230\275\207\212\027\274\333\2175<\242|\270=\363\352\257\275\327i1=\250\t\322;q\254\215\275\263Q\204\275/[\323=Zm\265=.n\027\276\236\367\244\2746\317u\275n)\320\275\333\377\332=\255gQ;\207c\037\275Bq\t>\010|o=\214\273\334={\307\364\274\312\303\204<\261\027*<\373\010\260=\352\221\232=q\335\260\275\255\236\305=O\305\311;\"\020X\275\302+\370=~\t\352\273-]\372\274r\307\307\272\351i\342\274E\213\313<m\322\325=\353]\345\274\375\333\364<\360\323\037\275\213\235\303=\024\214\000>\242\211\255\275\222\340\332=\032\250\231=\247\014\377\274\301]\233=\211\370\257<\250\361\325\275\256;\026>\005\003(\275*\305\227\275\021\255\271;\317@\335=n\023\270<\260\375%>u4*\274\003\374\375\275\306\356\260\273\274\327f=\254\306\023;\231dj=6,\230\275\204\203.\275\335\207\214=O\233X=\207\324\353\275\271\014>\275s\324\370<\311\312\226\274]\275\374\274\255\000<=\332E\227\273\246\342\024=\241\324\020\274\331:\354\275\021\352\305\275\342\230\275\275T\3456\276S\233i=\305\024\177=\366W\354\2741\353\027>\244E\037\274\246B\353<Xr[\275%\007\'\275\350\226-\275\323\370\256=\222\nz\274F\363\365\275O\342\243=\323\351\010\274\004\325\264<(U\266=\352\223\252\275\357\337\\=\025\211\014\275\002,\220\275:\375 \275\364\255\351=\021q\272\274\257\325;\274\324\342\304\274cj\341\274\021\\\302=\365\266C\273\005\263\277=\274\257\264\274\341\030\276=\235&\315<J\307\251\275z\3164;\236\221\231=[\225\357\274\247\002v\275\210I,<\227\350\307\274\256\227\222=8\362>\275\342(N\275y\002\032\275Y\274\350\274\330\270\303=\346\353\240=\274\247c\274\023L\274\274\214\227\305=\225\315\204=\221Z]\273KT-\2750\202h=\367\277\315<E\210\003=6\245l=\214\2157=\334\232\203=\327\371\272\275v\352\022\275\236,r=\326D\332<\357~\350\274\3127\332\273&&\251=\354\033=\2753\214\241=\0255\003\275\306\236t\274\340\253)=\260\252\204=>\312\026=\330\344R\274&-G<\362\273\272\275?\007\320\275I\273>\274\255\263\010<w5N<L\360s\275`\245\235=\303\372\020=t:\242\274m\213M\275\364fA=x\177\324<\371@\221=\332q\251=\227j\242=\035\314V\274\351\036\256=\023l)=x\263\311=\261X\213=\007\000$=\374\006\276<\017\034\273<\273\340[=\263IF\275\245\336\301<\311_\033\275\351M\305\275\260\240j\275\232D\033\274e\260Q=\035=F\273e*}\275\227\237.=f\277\345=z\372\256\275\345U\312\275\202\336\\\275\320V6\275ej\232=0\274\320=\370\237\013=Z\006I=\031;\225\275\270\371J\275\314\267\271\273;\010\334\274[\220\020\276E\375\200=E\304s\275U\351\306<\2123>\2754\260\206\275\245\006\225\274s\356\014>\257vi\275\036yY\275\272\200\203\274\212\337o\275T\324^=\032\334b=<\376\365;\261\200&\275+K(\275p\016\250\275\003B{=\337\031\2649\211X\005\276VP\026=\330pL\275\222w4<\363\004\203\275\347I\322=\r\242\006\275\360\343\363<\340\\\327\275xy4\275\323o\214\275FH\242<y\204\341\275\306\276\000>\313\254\n=\\e\273\274\342\225\256;;9\265\274\214\347%=\330^\371\274\323\226l\274\206\027\201\275\341\200m\275\312|\222<80f=8*\343\275\020\251\244=B\363\276\275^eX<t\216\271=|/\376\274\036\207\272\275\243\3366=<C\336\274p\274P=\"D\032\275n\033\226<\345r\251\2751\206\324;\336$\274<\210y\376\2743Pb=\320\237\266<\334~t=<H*\275l\316R=\217\221\202=Cl:\275x\360\n\274\351\037\222=a\240\021=\334l\300<\"\0100\275\364\244S\275{[\t\275\227\237\024\275\031\264\345\275#\026z=5\243\035=\222\2760\275S\3343<0\224\361\275\266\245\237\274Y\221\347\274\\\257\200=pBg\275\264\274\"=\0331D<nn\361\272\334eY=fcO\275N\242\234\275\t8\324\273\357\r\207=N\275y=t\263\203\275J\235\272\275\363\300\316<\010\273\t\276\322\037\225\275B]\250;\225\033\271\275\317\215r\274\274j\206=\352\215\267<Zt_=S\305\023\275\210\013\203\275m\035\\\275rX&\274\272\300\227\275\323UA\275\365mK<\016\277\264<\353\200?\275\346\257\363<\0069\211=Z V<\347P\307<^H\215=\312=\216\275\214\216\032\275\252\2524\274\\\363C\274\221H\217<-\224\347\274\274\262\232\275g\230\r\275^\215Q\274\372\014W\275\242t\212\275\307\005\301=\034$f=\3604\341\275\"\264\260<\255\301\267\275\216\256M\274\344\210\350\274\255M\251=8\355U=\250{\002\276\274\307[\275\304VV=\003\234\334\275\337\234\214=\272\001 =\037\255%\275\227\245\200\275t\253\312<>\235*<\"\267\247=\373\020\024\275_w\354\272)\331\232=\214\354a\275\221u\007<\242DV;\265HD\275\231\213\213<\257t\212=\022(h\274\r7%\275\004\362\204\275:\031\373\273\345\275\357<\216\304I\275\360i\235\274\265\276O\272}\201$\273\024\250]=\342\263R\275HC\243\274u\275\200\275M3\251\274\177f\211=D5\004>\212\024E=\235\204D\275\350\010\271<\253\232\000>\327\014\325\275K\222\246\275+\243\370\274O\240p=\t\027`\275\357\355\360\274\213\021\301\275\245\354 \274\307G\030=\240\032v=h\"d=\354\220\315\275\3130|\275(~x\275G\022\203:\355\223\223\274\256\004\315\275\263K\372\274,\031\354\275!x\201=s.\344\272\375g \275*\270+>N\2533\274\347\267\314=\231\202=\275\027\325\233<*7\273=g\206\343<\317\263M\275\306\307\n\276 \306\033\274\346Q\361\2759\314Q\275\017K\032;\352\255}=\243\205\001=t\032@=y\"m=U\266\314<\003\265\221=3.\252=\000\350\376:&>x=\204f\205<W=)>\246U\336<\234~\3749\035\253\322\272\210)c=\251\027S=\363\254$=\345{\267=\236W\010\274\325\245;\275\367\206\372\273\017\346c=\240\223\267;\240\017S\275\016\321e=\031\220\362\274?_\346;\261\367\253\273]\222\203=\035\344^=\035\336W=6\335\362<<\334\013=\240\321\203\274\233\272a\274X:&=\373#u\273\305Rn=i\254l\275\305@\327\274\226\026P\274@Y\276=d\256O=X\314\037=!\202\223=\234\367\233=\303Y\353<\244\200W\275\000\307\350<\317\215\210=\274%\234=\226\206y\275\317\356X<\205\313\302\275\200\247\002=\206\003}=\344PB=\313\004d\274\275?\206=F\376\350<\203\273\225=y\023\232=\355\271\020=\t\242K\275\232e~\2757\n\366;\033\277\201=\210\034\177\275\337\003\252;\023A`\274\222\215\034\275r\253\242=\237{}<j\270\002=y\250@=x\213\211\274$\255\243=\007\344Y=>l\235\275ME!\274[@\231;\226>\305\274l\236\004=\315F\323:\303\250\374\274{\342\302;a_\300\275 \257\006<\244\246\307\274\003s\267=\267,\007=[zc=\326O\362\2746\265\362<*\330O\275\312\212\205</\307\272=\327\345 \272\274a\225\275\201 I\2753U\370\275\361\246Y=\221\004\240<\0336\036\274\365\323&\274\255\237\317<|\254\324\275gk\342<\301\364\310=li\205\274\366\360\021=\350O\031:\355\0317=W\263\213\275F7\207\274\232\323Z\275,.\255\275\016a\322\275\005Z\237=)@\232\275\255\003\243\275@\372\344;l\270\312\274j\345\245\274 \027\t=M;(=\016v\226<\346P\251=>\254\223\275\312\250\217\275\000\n5<\2537\206=\330\345\t\273|wc\275!\277\003<\376R\231\275\305?\305;\036\024c=\335,\324=\361\3143\275\233\023I=\224B\351=\306\230\203=\031\274o=\033\350\262\274\310\311\201\274\344\027\023<\361sz\275\310\274\267\274\266\365\201=b\213\224=\030\037\206\275\267\315*\275!\334\262\274\017\005\024\275~\212\206\275\230\322\342\275&L\301=\261Su<\'U4=\t$>=\317\375x=\367R\217\275IV\025\274\213\270\231\275\275\253?\275?\205a\275\342\355\207=\036~\035=N`\260=\341\322\264<\300\353i={\355\242\274\260M2\275\305\251O=\371\001\264=\353\317Z\275\337\202g\275\352d(\275\274Bz=@\\X=dT\215;\221t\263<m\005\037<\361\031\211<\362\257r=\202I\214\275@\230\222\275\376\226\225=\326\037\340<\210\r\002\275\023\333\230\275\'rN\275 \277\222\275j\221\345=\2530\025=\"[==Bv|\275\002\272\235<[\213\256<\214QB=/\037+=\267\346B=\373\2241\275I~\205=\274\326\264:\3026\245\275\3308\206\275\'\325\370;\260JC\275\234X\032\275\310\215\240\274r\312-=\316H\022\275\301C\210\274\371\336\202<\327\006}=\374\312\324=q\361h\274!E)\275\226\217\331\275\210y^\273\367\364\213\275\351\325\037<\336\336J\275\030Q\206<\260%:\275\177\241\257\275:\335\365\275,\306\024\275>JV=\276\304\342<?W\240\275qy\250\275\014\304\336\275=\363\007=\356\022\222=v\273\236=\341\221\220\275\353X9\275k.\375\273\013T\273<#\375\257=\3071\213\274 \004Z=}&\375\274e$\303=\255f\205\275\rg\021\275o\305\241=D\224\003\275$\353\014\274\236\350\251\274\201\035\025\275#b\014<\374\203\220\274`\247$<\240\301\213\274\372\217\232=\213\240\"\275gO\216=\266\216\265\275\204\274\202\275`.k=:r\n\274\237\361A\275\222m5=r1\367\275\200\336\206=\024\240\341\272\360\013\301\275\320\311\246\275o\210\240\275\0316\243=\032W\346<\231\"B\274\017\210\274\275\346\225d=\305t\205=\t\216\220<z\341\242\275T\312\312<U_\n=\025\027\204<\017\202\352\275\270\375\027<\305\207\034=MU\354\274\010\201\211=d\206\234\274\\\373i=\233\317\224=\016\317\271\275\375\244\323;\335\356\275\275\177h2\275b\023q<\207\326\221\275\364\301\277\275\334bB\275\tk\320\2744h\210\275\352\310g\275\"\340\276=\374c\243\275\226o\221\275\254\010\227=\320j_\275#\370M=\221%\215\275\'\344o\275\253=\003\275\271\223\005=\307\341\317=_\2547=f\007\302<l\253\236\274\203\213\217\275\327\334\024=j\317\331<H\212z=\320J\377<b\230\312=\314s4=^\021\311<\255\010:=\361\001e\275\267#\333\274\005\2436\275\234\001\265<m\356\227=u\330\004\276+\200\032\274<o\331=\210\234\251\274\237\007m\275\030\357U=\344\035\021\275\003\304\032>\301\273\264\274\2027\036\275e\020\216:6T\340=D\003a=\332\035\313=\347\001\332=l\266~\274\327\342\232\275\234\240\346=\260\204\241\275\001\256D\274c\271\350\275CF\246=\022\305\302\275\030*\216:\"J\312\2756\331\272<T\351\033\276!\242\250\274\2705d\275k\215\225\275Y\246p\274\225\327\326=\301]\261=\365S\002\276\273\367\200\2756\260\001\2759=\243\275\376\236g=\343\247I=\003p\027\276O\207v<zC!<\220\224\326=$\340\202\2758\227\217<\214\033\356\274D{\251<\221\204\240=1\247\334\275\354\235,=\032\235\317\275\336\357>\275\250\220\311<xlZ=8\260q=\311\013\264=\366\032\345\275\364U\032=7\300\022>\235]D\274\2512B=\320\nD\275\306\376\326<\336O/>Mt\276\275\271h.>\317p\366\274\243+\241=K\0206=*\311\024\276\361V\250=\343ei\275IBy\274P\037\017\273n\351\250=\242\337\250\275\365GJ\275\003\335r\275\023\261\246;\324\316\177<&c\246\275J\320}\275n\3132=w\245\303\275\363\340\262\275\215\356\216=\2253)\275\375\265\230=\374\245\032=\221\265\376:\230|\276=\014g\360\274(U\207\275g\363\226<\226c\351<\363\377\307\275Ej\036=4\373\313= \312\365;\031\323\306\273\313l~\275\2022\232=\037WP;M\251\201=I\216\322\274\242,\254=O\227\032=\316C!\274h=\363<.\245\223<\246\224\276=\305\037\216\275@\2464<\302u\"=\340x>=\034\204\327;I\202q\275\310}W<]\035\260\274\340\357Z:O\366\200\274\313)\257\275\010\230L\275\223\004\255\274\333X\224<\224_m=\225\014V\275\340\1774\2746=\240\275\177+0\275\034a(\275\000\342\336\273\021u\224=\t\220\003<\255\310\213=\232\213K\275R\260\260\274\327\025\215\275\377(Y\271\247|7\271D\216\036\275\014Qr=\322\036$<\255\004J:n\337 \274S\377/<  \202\275p`B\275l\005~=\367\275\243\274\031\000\240;P,\242\274\262\350\227<:\270<< \241\'=\036\201\353<\355\323\032\275\205\206W\274\246GA\275\034\276\252\275\304?\267=\251P\302\274\267\235@\275U\222\305<\032W\222=J\274\013=\2217\007=\226Uf=#7\337;>p\212\275Q2\010\275\353\007\021\275@\317Q=\035g[\2740\260 \275$\211 \2754r/\275\373\253\034= \313\350\274\210A\027\275\013\365\212\275\026T\226=\020\003\325<\323\0202=\262\377o=/y\224=\230C\316\275\202\232>\275\034\000\226=\014\216\213\275\267\351N\275\232\212\373;,x\341\275\354\031u=w\230\224=\335\212\303\274\204#\332\274Z\323\021\275\370SS=\325KR\275\006\277\030\275t\177\233\274 \304\216<\224<\237<p=v\275\230\360\252=\335\312\202\275\363\236\323=a\336\236\274Z\'\304\273J7\214<\020T\013\274\257\230\250=4\364(=\323\374\177<<\032\357<\003gr=\021\3576\275\215\233\3009$$q\275y\354Y\274\225\306\261<\231\"\037\275\335\003\240;\3363/\275\342:h\274\312\353\265\275\365e)\275}\224\027\276s\332\364<1\250\303=\272\316\257\274\213\331\035>\004\"\202\274\356\363I=\215\341\356\274\361\240\227\275\234\337\306<l6G\2750\032\037>\345\272\000>:\305\262\275\321\275\n<B\256\334\275K*g=bd\317\275P\303\327=\277\373/=\346\003:\275H\006\340\274\300\003\014\276~\003\232\275z\233\361\274$\274\377\275B\305\267=\312_\031=\317\305#\273\211h\214<\211j\300=\371\326\336<\352\306+<\022\337\241<\3525\025=\253E\364<\271)\322=!N\260\275\2517\302\273\360\350\267=n\"\271\275\357\'\322=\t\202\225<\231c\026>\3175\226=\213l\253\275\353\315;\275\225\356l\275<\317\303\274\303XV\271-_\005\275\354\213o<\032(|\275\326,\n\275L{\227\274\367f\323=\374e\002>\362F\326\274>\307\215<9\037\230\275D+\262=\260;\322\275\305\367\311<\206\036I<\013?v\274\233xt\275x:\345<r\205\013\274r ,=\304\346j\275\022!\234=;xW\275\3141\323<\023\034c\274\372\002\345\274\201\252A\275-yX=:0\333\2741\002\363\2742\373\027\275\233\024?:\273!\n\276/^\312<\003;\026\275\215\005A=Qv\354\274\177\264*=\366\374I\274|\306\241\275\243m;=\014\353\213=\330\247*=\300\006\016\276\260h\211\275-/|=\001\371\234\275\353\344\331;\264\214-\273%\372\010=\317\002\036\275\266JA<y=(\275}d\237;\021\314\356\274\227\327\302\275\240Fh=\235\375\226\275\346\227\370=\036V\301\275x*b\2759\366\271=8\016\034\274ZE\003=\254\266\206\274b\317\252=\242\372\317\274\324\010\264\275\334\247O\275\317\' =c6|\275t\314\321\274\006\020\217=\263\3733:g\272^\274\177-\271=d\212\206;\202R\025=\213\001\334<\0078\311<\356\273\221<\311\255\230=\360\010\026=U\264\017\275\301\211\331;\346\216\304\275.K\221=\352\311\260=Vp\221<\202x\206\2755o\004<\375\240\226=\036\224\342=x\t\320\274\345\235\236\275\275#\027\275\354\321\211\274L\310\204=j\022\276<`\017*=\270&\312<\212\302\264<\321\334r=\246\026\025=f|\220\275Jx\340\274X\316 =\232\242\347\273\016\223\225=\204\002T\275\013\024\001\276\321\326\311\274\2043\340<x\314\204=\030\352\250=\303\230R\2753\347d\275\023\263%=\236\020\344\272\303W\206={NY<\257\262S=$\354Q=\374\330\266\275u\332\215\274\374\275\220\275\364\321\355\274p\346\031=\034jZ\2751\353\010=<\261\240\275\301\004\205=?\344\005\275\205\333\213<CcZ\275\275/\201<\002\376\t\275\331M.=\301\376\224\274\363\341}\275u8\262=wm\257\275#w\357\274\221\222\377<\020\271B=\002*\205\275t\004\213\275k\235;\275\314\006\357\274\227_\341\275\r-5<\227\2002\275\236HR\275\311\321\257=*\343\260\273\000\325j\275[\364\250<>\350<\274S\017\307=\273\221\230=$\315\210=\355\037\257\275\r\223)<z\\<\273\240Hq\274\360\370\251\275`[\225\275\337\256H=\240*\343\274\320\"\276\275\252\351P\275\0303A\274v\367\211=1\215s\271\327\264\323\274~\350\324\274\362\320,\2745\277\010\275\252\312A\275\321\236\024=\346(\211=\253\026=\273\304\226\022\273\235*A\275\204\245\222<\212\341\025<B\320$<V\222]=\316v\274\275C\t\233=n\312n\275\226\300\363<\365\211{\275\346b0=4\022j\275\261K\330\272p\236\212\275(\345U\271\352^\3219\203\305V=\266\265\204=\034\216U=\210\014&\275\236{\261=x\334\317<\301\301\305\274!4\017\275[R\031=\341\275\370<\273R\235\275g\234\236=\341\234\317=\207\330F\274eIg\275\365\214\270;\221\232\333:R\332\310\274A\275\300=wK\327\274\025\205X=\310a\226=\362\033L=\252dh\275\321\337o<\207\014\357<C^Q=}\257\241=U\303\372\274\2454\201=\351\214\317\275\375\242\233=\026\261\033\275[vY\274N\366\013\274\202\266|<*2\013\275\014\216\304=\\\230\306=\031U\312\275h\226\222\2757\217\227\275\230\232~=\027e\225\274_\215!\275%\031\025=0\245\203=\324:\363\275}_{;9\003\352\272\\\025\255\274\024\372\222\274\275*\231\274\257\017\205=f\216\232=>\214\\<\262\"\223\274O\341\200\275\273\225\000=X=L\275\342Ix=o\260|=\227~o\273\257j*=\262\n\254\274\334S\267<\326\003\024=\204\351\216<#Q\247<\t$\326<$\256\200=0N\022<\231I\200=\274\363\310<\275\220C=\304\203B=U\221\354<\242\253/\275\302M\330;bA\205=3\033\337<\007%d\273w\320\246=%\276\232\275\215d\266\275\3169}<\275zG\275\367\336\352\272\216P\314<\265_f\2757\205\223\275Z\036b;\260\306@\275\335WN\275F\376\303\275\251a>\273\3204\231<\262@*=\335\334\237\275\300CQ\275\022\030\203=\274\265\025=_\227\317;T\351\200=\235.J\2754\217N=\313\035a<zZ\353<\217\004o\274#C\335\273\246\333\032<\346\302\364\274\273v\007<\342$h\275\257\022\263=\355\016\032\275i\334\360\275\003S\374<Qs\224\275<u\301<\365Kj\275\004\305\270=\213\342\222\274\343\306\267\275\\x\241\275N\3617<\001\032K=j\305\272\275[A]\275\311\317\346<b\202\001\2743pv\275\252Ie=\260\307f=\031`\030<\237\020\341\275\010F\024\275\017\001&\275?\263\200\275\207U\326<\274\247K\275\320\253\034\274G|\210\275\232w}=`A\346\274K\355\374<c\236\002\275\365\3728\274\245\037W\275l\304B\274\034\2236=n\230L\275<\343`;\377\306\216\275\322\025|<\005M\244\273\227\032Z=\257\341 =\351\275\343<\227\300\255\275\310\353\373\273\010\367\305\275\027\374\260\271\232m\367=<\350~\2750\222l\274\224\323!=\363\246\210\274\021R\245\275lg_=\213\264_=\310\260\365\274\024\205c\275\014?\274<>6\227=\200\003\266\275\021f8;\026\324~=\216a\357\274?\364\230==tk<A\263\335\274\tCE=\253\262\352;l\3310=!# \275\353\226\263;\321v)=\345\320\227\275\256\356,\274Y\324\220<\251\257\215=k+-\275D\013\301\275\266\2108\275r\004\203=\302\333\256=\313( =/\323H=\240\312\313=\331\304d=\037\225a\275\211e\023\275\367\257\245<\3112\200=\301\372\204=\"D\177\275\265\242X\275\010\217\025=\311\272\344;O\234\032=0\022\332\274\322\375\030=P\222\007=\272\017\252\273\371\030\215\275\275C\301;\245\335\205=\363\224C\275\010i}<\027\202\326\275\257,\253\275\020\353w=\250\036\002<OOU\274\002\347\217<qJR=k+\r\275r\330\213\274\332\311\'\275\210G\220\275\332\255\024\2756\227\223=\255\337\235\275\310\301\210\2756\244\020=\354\221o\274\352\252\343<#\346I\274n3\310\275~\257\234\275\235-\317;J\217\310<#.^\272\253:\025\276\255\025\007=\225:\000\274\317L\301\274\230}\234\275iu]=I\342R\2753}^<\002\251\362\274\024\253\036<\373r\215\273\204\2102<\274\244-\275Dc\322\274\"w\024=\177\350\326\275\235V\321\273\260:5=\360U\237<\034\262\276\274\276\323\264<\353\2373<\245\307\303\275\313\232\254=\372\2360\275G:\032\274ew\361\275\354\255.;\203v\272\275.Jm\275\240*\245\274\246,\260\273z\331Y=\213]\253\275\225h\206=\335\341+=D\021\332;\325-\315\275\266\226\204\273k \347=\342\3613\275\255\263\006=4h\010\275l@\224<\026z\212\275\2619G\275<D\205<rY\236=4\272\230\275VX\203=\271X\301=F\267\377<\310\344\332\275S\320q\275\375\034i\275\221\257\226=\277\245X\275\377b\231\275\006\262(=\256P6\267\007\263\321;\276\375\360\273]\'\337=\275\201i\275\223\352\316=P|\010\275\270\256\202=\213C\301\273}\342\004\276\230\027\261\274\376\254\232=x\001\265\275\370\"\227\275\024\013\r<\303\nh\275\002\375z=`\202\247=\273\te\275\tl\027\275\306W\365\274Z\3726\275\255\222\242<\343X\242\274\231r\003\274\347R\323\273am{\275O3\013>\301\031[=\t\234\340<\253i\213\275\017\313N=|\2551\275u\217[\275A\251_\275`\207\203=E\3767=t\256\256=\340\372~\275\271\020\223=g\235r\274\332\256V=u\362s</l\302=\036\313\215\275\271\277\010<\330\206\252\273\220\3213<V\237\r<`j\241<\020#\023<\272\374\000>\362\302\300<F\236\340;_\n\037\274(\000\302\273\'\3739\275\332\323\332\275\275\270r=%\237V\275\007\014\215<\032\304\225\275\274\031\213\274\225K\2449\003\325R\275\037\335\357\273\213\032\214\274\323\362\214<2Z\232=(\242\254\273,95=\263\007\205\274\014\006\210<\355\372G\274B\337\264=\302>\304\274\263\020\020\2754\322d=^\213e=g\324\343<\314\221t\274\266\013\217\275\274DL=\246\026_\275Pa\253\275e5\374\273\243\2425=\241\267\313\273J\352P=~\242?=\344\215\304\274\210\201\321\275\212-\023\274\245\326\263=\236\232u;\3418h\275\256\332\000\275\312\330\027<\375s<\275i\223\300=!\355\001<\223~\024;8^\313\273J\330_\275\354\351|=\307\007\005=\353\207;\275\372\231\316;\323\217J\275\r\3644<\303P\221=\222\006\270\273Oq\367<;\251==\330(\226<g\360{=b\343f\273i8\300\275y\205\352\274\332\333\204=\021\330i=\252\326b=al\204=\226ik\275\313L\016\275\231\206H\273\355><\275\327\276\014;\035\032\316\275\"\014\317\275\353Y\353<R]\245=\226\360\305<\363\031\362<\377\2205\275-e\225\275\347\034\022\275\236\252X\275\237f@=\237\333\351\274\034\213\214=L-\3659\367JI\272D,\331;\273L<\2749\201?\275\251\214U=\233p,=_\024x=/\242X<\306\r>=[\343\224\275=\307p=XA\334<\341\351<\275P\201\233=\3755\232=&1\341\274\350LD=Q\355\300\274\232\323\264<I\231H=\245\n\352\274Y\212\\\275\310\017\010\275\257\247\330=\\V\205=hn>\275dZ\005\275\334w\314;,\024\301<eQ\377<\r\344\237;\373\341\"=\301\262\302\275\000k\374\275{\325\320=\0062\204;\241\276^\275\0035\353=\000\242\200=\207\ty\274_\to=\016\337\306=\313\300L\274\314n\214=\234\272\220=\n$.\275j\372\021\274-\273\302;\326m\034=\237s\227\275\307L\275\275\370\246\201\275\322\200e=\342\316I\275\001Q\364\274p\343\236=@\353\200=\264D\210=\203a\037\2752\237\207\275\325\023%=\342\347&;Z_A=f\351\244\275\374\2177<\365\354\230=r\350\017\274\177>v<$\024\251\275\031\362\351<\333\007\220=\256\242f\275\032\036R=\201vQ=\246e\021=\255\353i=p\235L<\245.\023\275\351R\342<cV\316\274\275\014D\273\344\277\265\275O\013K<l\261\227=\334;\203\274b\356Z\275:\007\027=\261\036\017=x\340\200=_\030 =Fi\036=\037\006,\275\000p;=\321C\205\275\375n\254=\231\240\265=\004=\231<\201\331T\275\230\373\214\274\217\305*=\364\r|\275\001<A=*\212\216\275\277zk\275\367R\007\275\205\017\226=\314\370(=\033(~<\235\224#=-\206\246\274\306\321\227\275/\261\300=k\304\217\275dKa=)\260\236\275\315\366\325\274p\3269=`\256\336=\031\275r=k{\347\274\272\030\003\275\202|D\274\355\222\302=\310\020\366;G\252k\272\317p\201\275=y*=\030\2643\275\206\340l<H\215y\275\212h>=o\364\013\275\360\352\247<\346\262\341<.\201/=l_\n=_3\013\274\004[\235=\226:\032\275\273\331\362<|H\247\274\266\006\t=0\201R=>O\016\275w\244\274=\221\276\247\275\217\2718\274\215\325i\275\252t\316\274\312\330\025=\255\231\232\275=\016\002\274\026\256\247\275\365)\222=K\232\\\275+\314\227=4g\216\274l\302\n\275\337\220\236\272\001\207==WQ\204\274\027\'\032<\337\234\311=\341\312J\275\323\"\010\274\255&\000\275.m:==ah=s\t\010\275\321\032\177;\351-s\275\311V\035\275\371\031\347<\220t\351=\217g\217<\233\213\n>1\335V\2753\031\037=o\300u=1\017,\275\251W\034\275\331>\001=\264l\010;\2375T\275\251\\\240\275\003\275\255\275\360\035J\275\032\263W\275\346OR\275\263\317\307\272\350\224 \2750Uz=\371\225\346<\304\203x;\236I\265\275mH\023>j\346\214<%\002q=i\241\346\275\241\260\302=\177\330\203\275\376\016\302\272\334\211Y\275_G\350=[\036!\275f\0136\275\241\367\252=Kmv<\030M\354;\3622\212=\250H\246=k\356\220\275B\270\257\275\346\302\002<Pzf\274A-\203;\265\251\223=\r\346\264=@\272\316\274\247\263\262\275\312\251\213=\204`\340=\221\366\360<\022( \275\337\026;\275)\243\020>\315l\023\275\221o\210=\251\007\007>\300\363\263=e2\247=\354N\346\275-\311\244<\2024\266\275:\013\214\275\300\265\342\273T\223!=\201\0363=\254\035\001=q\274\262\275\nU\235<\256\216\344\274\027\341\241\275a\272\307<vu\013\275bc\253<F\025\007\274tau=\243\344\251=.\247w9w\357\234\274\037\031\255\275\323w\223=# \254\275\t\207\303\274fp\210<E\313\206=\225\\\335\274\373\320\360:\016\325\300=\366\261|\275\034{\213=\267\3559\275\310s\233<Q5\307\274\014\367T\2755\246\215=c\014\236=\203\256\337<p\"K=\0178~\275\224\226\316<\342\027\265=\027\364/\275s\251\243\275\330\002p=\007\266]<`\306\262<\262\032T\273E~@<\274\346>\275\357|\237=$\372\031\275\025a\337<jt\375<\236\371\254<\353j\037=\034T3\275\360\326v=\3405\213\275\372q\216=\250B\005=\350q\210\275~\257\347<[n/\275\036\313[\273\343JD=\334\305F\275\242\263\206=\017\356@=\377\276\325;`\001\014=\204\177\016=\201\305\361<\010S\2167\204|&\275\227\344\202\274*\271X\274\307y/<\253\326\t<\343/\323\274\030\003\201\275\037\336\3138a,\253\274o\017\\\274\n\266P=^\313\220=.M\006=\260\202Q=R\311\216=\226\347\000=\236\010]\275\3047\232\275\337\355\325<\320\235\006<I\005}=;\034[\275j\376&=#\222;\274\274sL=\265\254\361\273\344L\017\275\032\010\351=\317\301\003;\226\212\271=\334\264\232\275\303\205V=\343\372\214<\2178\205\274\242pp\275\004\t.\274F\016\355\274m\233\335\275#\030\002\275\242\021\210\275\327\304\303\274kO\331\275>\256<=K\301\027\275N0\204\275\207\372\243<q\211\003\274\335\370\255=\242O\021=C\257#\275Sb\342<\016\230\'\275\025jy=\347~2=\317\236\206=&\374C=e_\311=>\304\343\274u\320\227\274Mi7=\'\354\336\275S\247\246=T\267\"\275\346}\'\275\231t\233;\"\323\200=\"\335\007<N\277!>]\271\225\275\336\362H<\263\250\230<\357\325H<\306^o\275\302qn=>\024\225\272\233\313\'\275K\274*>\300\312:=\250a\235:8x\037=/\016\211=l\366\206=\217\213\211\274\020\354O=f\212\320\274\020\223\372<h\032\320\275\337\205\315\273\346\224\253< \036\222=\317\033\313\274\027\303u<\377\350\034\276e\n7=\r\037\327\274^\264\225=\267G]=\r\021\002>\343\335\274=VM!\275\013\347\n\275\243\204\217=Uq%\276\221<B=\242\206\013=\365J\"=\313KO\273\256\242\246=__\227\272\351\316\025>\333\271\254\273\004\030p\275\"\331\215=R\\\235\275!\335.=\340B\320\275\260Q\254\275b\3343\275\007\355\365\275\243d\245<z\347y=;\266\377<\226\376\227=]\321\200\275-\256\002\276\235?\014=\340b\317<Rz\220\274\335\226\273;\277P\002=*\352\332\274l\322\n>\n\025d=\370O\\\275\356,l\275\326;\001>o\303\036<?\323h=\234\227\264\274\375\234\030=\242f\304<\303\347D\274\361\353\037\275s\270\275=\343\313\243;Sol=\221?\341\273z\3702=N\332+\275I\363\007<n\232\\\275\242\r\263\273]\'\265<K\026\007=\341\031\241=\276\256\244=\017\236\354\275\364\000\021<\301\202\220\273(\000\344\273\220\264\372=/\332\236<w\307\252<\2276U\275\032\343\225\274db\217\275\270\350\256<j\220\026\275\304\243\020>\356\014\322\274\307\260\265\275<RV\275(X\010=*E5=\260dJ=\310ze\272z\222\254=\217\227\261=\032dE\275\361z\366:C\202+\276\250\216\010;1\252\330\275F\266\303:\221\217\267=\223L\267\274I\244\234<\273\313\032\275\013p\020\275\327q\035=\273_R\275c\263r\275M\r\233\275\230>\326\274\263\033\212=s/h=\331eN\275\037\311\202<F\265\247=\374\271\237=\235\254\340<\006\345V=\317\374N\275\355\365\210<Q\207\242=\265\225\034\275\022\336S=E\024q=\371Y\337\274\252s\237\2755DV=LXR=\360\377[\275Mnk\275\247\217\344\274W]\001\275o)\221=\030\233\203=\215\254\377\273\177\375 \2759\260\236\274\246\\\001\274\370\317i<\324<\202=\262$\203\274\346\007\332<vP\227=\034\271%\275\n\'O<\244\356\226\275o\020\303=\363\331\360\275Rm\213\274w?%<\303\357L\275\374\323/\275\216\326\001=\335\"\302<{\267\017<ind\275\326\240F\272\361L\247=\227v\203\275O\020\\\274\317\261\321\274h=\204\275\305Q\005=\275>\270=\004\021\030=\317W\235=\255Y\200=\240P\212\275\003C#<js\205\275\365\202\375\274)U\024\274L\2637\276\216m\255\274\260\352\210=)w@\275\217\023\220\275i\321z=\305\311\301\274\'z\364\274\205\356\226\275\374\323V\275\363C~\275\352\367\330\275<v&;\020\216\277\275\374\255\233=\032\030\343\273\"\330\363\274\242J\017\275y\377\305\274\222c|=Z0\022\276G\346/=\270\270\312\275G\315Y\275F\\\227\274N8D=\007\251J\273\245I3>\257\321\365\274\250w\251\275\327\301\203\275S\016L\275\304\024\"\275\001\321\257=\007\202\023\275m\001\325\274\006\211\247<\341\022\016\274\203\234\213\274\034\373\272\274\257\3436\275\271j\"\273\363V\241\275\373E\326\275\211\322\221\274\316\274\031\275\314\333\244=\252s#\273\236\246\254=M\227-\275\261\350Z=\376\340\374\274\214\216x=\264\3668<K\024\301<\367\303\005\275Z\257\234\275\177|_\275eG\270\2746\364\306<\301\256\313=@\004\021=\201\217\202=\224\263\302;\005\271\312<J\220p\275)t\330\274^\367\003<\253/\312<1\231H=P\257\201\275\310jg<\333*\355\274\316\336`\274i3\020<\232o\244=\027\327o\273\034\264\035\274\354x\256;\232J\001<\261,>\274h\003m=\037yY=\212\010 \273}\034\260\271\357\233\215\272}\337\241\274\274z\002=\377R\r\274\372\252\222=\225\232\245\275\233\326\372\274\023aY<\310a\3319\210\037\373\274[\265l\275E\356\316\275\301\335p:@eC\275<z\260=\357G\002<~\332\365\275\337\'\275=\247\363q\275g\350^=:K\213\275]\217\263\274\223\"W\2730\021\337;\010I9\274e\265\256=\2578T\274\004\177\202\272#\251\205=\372\215\031\275\373/\200= \205\252<\364\002\226\275\200M^=\205\304}\275\032\016\265\274Q\217(\275\274\333\273=J\372\035\275\307\3763:IS\272<\334k\207=\016&s=\004\245\227=\244\363\274\275BJy=H\316\206\275|\344-=}\030:=\034N\325\274B\300\264=\340G{\274\323\2232\275\330\242\214\275\017\342\261=L.\241=j\017\221\274Q\344v=\355\217\223=\316w\270=Ia_=\235\001\204=\002\247A\273\253&j=\260_\320<\373\005?=\214\037\025\275\243\352\300<D\223z=~\356\305\272\000\312\265=\275\317\345\273B\276\216<\337\025\223<\266\372?\275`\302\037=\346\032\220=\005\340n\275\375\352\342=]k\370\274\321\370\233\275&6n=i\244\233\275\032\244\263\274o\177\275\275y\316\356<0\354n\275R$\254\275\313\006;\275+\n\270<0[\216=\247\301\236\274\323*\020=\0365Q\273\373\367\020<8 \330;\261\254\265=XL\344;.\355\232=\021\265+\273F[\t<_\306\372<\007\214\365<\'\244\004\276PH\230=!\244\010\275\373\321\302\275w\222\322<xKl=u\0041\274/\370\374=\244o\230\275M\201U\274S\277r\274s\302\217=\365\376\006=\202\252y<-x\021\2755\030\202\275\270#\362=y\377\205\274\272\337\257\274yB\310\274\262\377\362<)\003\006\275\322B;\274\243\032\222\275D\373v\275\004\0072;\302\346\202\275\344KP=>\2038\2747\032\201<\310C\234\275\213t\234\274P;M\275>\006l\2751\025\346\273\312C\010=j\207\256=\222\301\216=K\262f={\356\270=\226\235\235=\216\340\3129X\327\331\275\010\226O=\242\222\n=\300\0239=&.m\274\206Q\202=\300\372\033\275\300q\t<\202\230\000\274\201\236\267\275\276F\340<\000Ix=\004h\216\2755A*=\032\275\277;\237c<=\016\005\210\275\244\\\377<9\005\300=^\004\247\275OB\026\275e*\330\275 (\200\275E\371s=v\273\025=8\375 <\361\210\212\275\266\335C\275~$\216=s\245\037=\370\211%\275\333\203\030=\177\004\222=(\032&\275\014\3020=\266]O\273:\345,=\343\021\223\273*\213\214<\021Q\007=\244\'\233\275I\366p;\022\222\036\275\246\362\225=\377\206[=G\215\232\275D53\275\177\003)\275\225Y\205=vM\317\2747J\005\275CW\237=V\262\363<\026\"\036\275\005\242\344<\n\235\231=\272\032-\273t\372\026=~6!\275`<\327<\021\252\020\275\035A\201=\r\220\231<s@\214\273)\357\216=\316\025E\275\r<\340<\177Q\246\275dF\226=\354\320\016\275\005\277A\273\273O\370\274\337\250\231\275\314m\310<\3115-=\224\313\200<\363Rj<\027\022\275=\342\275\017=,\275B\275\315\334D\275s\212\030=\\e\210\274\200\304p==\223\221=J\235N=\340zK\274\323\007\214\274a~\246\275\225\222q\275j\252\210\271\247+\267<\030sk=\013].\275\357\252\026\275%\363D=\315\236\211\275\021YA=\255\377\310=\245L\256<\313j@=\253\231.\275w~\263=\177\301\010=\211BF;\346\235J\275\031 \227;\224\316\220:o>\276\274\336\027\201;.\264?\275eD\370<\030IK=\370Vp=\243\252\316\273I\321\014<?-\204\275\013\275\210<\366\375J=\326\017s\274\343x\262=\247\252L\273\360\320X\275l\354\323<\303g\013=n\3412=\301\363l=\205\205m\275\351Br\275\270\310\001=\r\343C\275e\336\262\275d\232\314;n\274\336<x)s=8LB\275\003\201\227=O/\246=u\356\233\275>:\367<\377\2746\275^#\261;\363\247C\275P\233\343\274\034\245\313<\340\273\251\273Kj\260=au\205\274X\351\035=\340\177L\274\240\t\202=m|\216\275\362hY\274\301V\216\275\305J\037=&)\233\275\213\211D=\307\363W=\r,\\=\317^\336<7\203t<\025\231\303=\367\2470\275YOO<\217\2750\275\212N:\274\tw\025\275\340\324==\310S!<\272\242\312\273X*\326\274%\267\352\273\325\n\245<\026\370c\274\242\016\300=\r\337\324<o\274?<\245\336\024=\003(l\275.\321}\274q\212\177;\000\257x=\303#\347\274\355o\362\274UyV=K\252o\275t\344\224\275\355\202\224=+\211:\275%(A<\343\2145=B\277\020\275q\004i\275,\274\"\275f\352N=i\242\300\274VLt\275\311\220\213=f\324\223\273\'\365\351\274\021\317\304\274\313ZD=\\\230\305\274\357\361\217<36\205=\013\211\274=\373<\210={\253\356\274-\n\216=Q\261\\=\025C\302<(\343\n=\001\370\264=\332\302\254=8r\025=\351\206\034<\005>?<\\Z\334;Rg\214=\316e4=&H\327<9\377\177\275e\030_\274\003(:<\016\030\324\274A\'\201\274\366\205\267=\376{\370\275^3\271\274\374\374\374<\"C\214=4\014w=Wp\032=\256\344\030\27515\224<\t\222+\275t\270f=w\216y\275b\370\243=U\364U\275\033\364\031=\362\322g<|V\251<\203\233\313\271\005\310d\275H\306?=S\274\211\275)|\267=7\270\224\274\307\001\217\275bf\332\274\201\367R=\036\034D\274\3425\277=h9\311\274\300\225\367\274-\251\213\275|\375\315<T\224#=\340\202\304\275zW==^1\230=\210\357\237\2759[$\275\371\002\204=-V\210\274\232\277I\275\354\031G<\177\362\206=l\246\216=\247\2773=\210e\254\273\001e\252<\036\021j=\'1\347<\247\265\330<\035\306\t=\032\010\232=d?\213\274\036\026\271\275#\326\303\274\303\364D\275\215\027\347=\033\3060=c\327k<X\201\211=\235e\222\275\310\226F=\203\005(=\271\022\267<\372O\013;\257\273\247\275\322;n7\247$\236=J\236\274=\265h\210\275\202\3520\275_\372\224\274\002\225\350;\236m.=3K\274=\n-\'\275&\363\207=\361\020\013=\266\212?=\332\341:=*Z\301=\266\345\267\274%f\211\273\256\025T\275|\243\264<\256$\217=\267\333\214=W\005b<\377\336\254=j|\252\273c\210\004\275^Dq\274\364\331\237=+:\327\275\177\351R=l\010\305\273\r;\335\274\034\375\177\275-lT\273]\204\226=\376\252\355<\223\243\002\275f\020\r=r\232\306<\312g\217=\251\370&\275\233\023\216\275C\223\177=r\356\200=6\333N<\272\263\264=a\3274=\374\346\301\274\316o\262\275\365\351\244=\034\373\004;\275\370\023\2764w\374=\345\033\337<l/\255<\373%\013=\321\204\221=a\254\272<\316a >z\235&\275\255F\222\275M\nq\274}e!>1\332/<\334X\323<\344\343,\274\\\343\336\275\354\373r=\345\nw<8\227\376\275\260\332\030>H\3717=|\334\253=\006tr\275\2560c\275E\230\003\276\243\303>=\227\2704\275\"N\020\274F\027>\275C^F=\357_b=a\235\264=sv\333\275B\223\364\275_A\300\274\3530g\274\307:/<\354\265\334\274\004\356)\275x!\250=^\261\021\275u\347-\275\307\226\005={.\203=\376\177U=\267\343\346\274\201k\362\274\367\237\215=\305\241j<W\336\370;\373\330\036\275\245\030h\2754\376\210==\314[\275k^\242\275\035H\320\275\013\315\000\276\311#\352\273\326\362N\275I\037\257\273\001\254\217\275\022,\307\2750$C\275\027\214\023\276\233\202t;\0050\234\273u\213S=\020\362\222=\023]O\275\030\372\\\275\240\315\314<\215\017\"=I\347\302\275b\263\247=m\201\374<\315B\000=z\202,\275\233\027x\275\217\347\240=\330\245\200=\276\340\343\274\031\033\037=\203v\246=U\007A\274\306\213\206\275\177\0007=M \301<\273\345{=h%\212=m\261\211=\374<B\275\303\270H\275\323\027<\275\273\3346=J\314\022\275\374\313\347=\231\351r;\270\353\213<\317\357\231=\213L\223<\360\312m\2754\201J\275\222L\222\275\'Tp=U\257\262\274`\374\270\273\272\241\025\275G\033\275\275\317\317\232\275\031W.\27464\214=\325B\231\274\013\241D\275\247\024+\275_\344\214=\270[,=8u>=[8\246=@\267G\275g\2732\275d\270#\275\376*\001=\027<p\275$\272\247\274\201\001\350\274\332^.\275o\2511=\362$\227\275\\\247\036\275\364\206\326<\227c\037\275\234\037}=\233=\003\275c\343/=~\310$=nW\021=\212\365\353\274\267U\230\275\254\000\203\275\365\330\211\274\224\247\310=\207\003p\275\270\271*<\0243\255=\236\244\265<\370\356U\275\264\272\'=\022\202\270=.\303?\275-\202\325<!zS=\214\r\345\274Dd\036=\310\274E=X\225\210<(m\231=e\261\247=\2373\276\274\306u\036<\003\242h=\372\3677=m}\335<\326\322\205\275xw\031\274\357\270\000\275\317\0168<\032\341\264<CM\221=\352\225/<\036\276@<\300I\254=e\365\022\276\354\215\326\274\376L\021\276\346\222\210=\351\214{<\027Vu=WY\262\275u\340H=7 w<\255d\027=\214\210S=\334\003\271=h\300\244=\233\330L=\251\321\222=\300\200\322=F}\253;\324\212B=\307L\225:]\272@\273\267\240\263=\362\2059\275\206\341\203<\2571F\273\262z\211\274\317\252l=\300\265b\275\263\034\365\274\014\350K\275m\357o\275\260`\203\275q\322\247\275\245|\266\275u\371;\273\357\3011\274\260V\250\274\027\227x=\263g\312<\313\355\023\275\027;$=\355\303\202=)r\264<)\335\266<=^\302=\243\004,=N&\004\275\037\033\270;|\032\325\273\035\r3<k]\244\274\377 \266<0^\304=\220\272\006=OD\003\275\312X\345\274\020<\227\275b\003\276<\241]->\266\262f=q\014\215\275\247g\001=\254\215(=2\224y<\231\277S\275.B\216<\200\'\330=}\352F\275\201\336\243:\332b\360<\231]\037=T\305\245=\3463\276=.\000\276\275}\340\325\275\003\312\202\274\347L\357\274\226J\223;\205}\226=4\016\033=\030-\013<\247\323\000>\025\231\302\275\253\206\"<\200\370X=Y\360\252\275sw\210<un^\275\256\205a9\226z\260<\344\002\267<\337\377\000\275.\240\242=P\316 =\027\t\215\275\002M\005\275\327\234\256\275\235T\034\276\321\334\020\274T|\300\275b4\334\274\025w\223;\357\214\224\275>E\241\275\226\225\234=\244\340$=\013=\223=\261\315\230\275\030d\004>\022\222\227=\"\034\021>\027\3362\275V\272\302=\245\206\225\275\033\376V=\231\257|\275\250\034u=\363\214E\276\367B=<0)\355=\313\025\035\274\214\370\271=^\\\236=`\267\342=;\026\263=\263\360\242=1\000_\274\022\322\226\275:\245\372\275\317\240?\274\001\377\203=\020\301\347<\304\210R\274\375\3746=3e\005\273\333\210\267\275=\313\257\274?L\233\275\007=W\275q\270$\2751\003\215=_\035U=\311\224\214=\t\247\002>\r4<\275X\274\203\274F\323\211\273\\\236\315:\257\374#\275.\027*=\35455\275V\321\273\275\352\234m=T\347\310\275\032e+\275\254\302~\272&q\226\275+\0051=\340\\\026=/\227\207=\217\2401=\000\365\210=wA5<oR\344=\271b\332\274J2\017\275F\215\262\275\345?\210\273H\265+=\227\nR\275\227\320\360;d\346\201=\366\315[<\254\272m\275 Sz=\221\375\363=\262\242\226\274\327\345\277\275\224\200E=\231\300\314<]\033\330<0f\273\274\261y\305<B\000o\2750\237\032\272\375\236\261<R5|=@\277\363<Xl\212\2754\207J=#.7=\354\336\377\275\303\202$<\020\345\3059S\330\373=\023R\204=\031\340;=\225\221\266=\221\345H=\232\346\261\275B\201)\275\2450\205=\245p\222;Bg\257=\202\330\024<\332\355\251=]\365#=r+\022=W\243\201<\357\256\213=\243\240\310\275\245`t=f\215\373\274\326\214\305=\3028=\274\354RS\275$\247\031=V9\016\273\277\216-=po\376\274I\325\251=\3179v\275\331\213\247\275\363\353v\274\177\260\256=\371\2720=H~E\274\306\202\252\275\263\013\321\274U\177\275<\006\360P\275\251\023\216=7\224\230=^\3451\275\376\205\322;\300U\237=;\200\267=\021\013\345\274\244\251F\275\214\310\231\274V\226\020\275\302`\236=\225>7=\374\352w\274zW\306<)\021\277<5\335s\275\303\002\313:\202\034\017<{fg<\313\250\234\275d\003\227\275\034i\203=A5R=\227\221\241=2\333\206\274\334\022C\27503[\275\033\313\201\275\023bo\275:\270\320\274\367\025\300=\207\277\333\274 @\262=\252=\231:\252zp\275\241\037\210\275X\3106\274\2236\211\275\21516=8\247\211=\367\370\010\275\'P\017\272\306\007\315<w@\206;\010\016\201\275\354\274\215\272\262\253\210=\000p\211=\344\022\016\274\321o\231=!5\014\275\315h\366\273\343^]<g9c=Op =\027\232\333\2734\366\242\275\'\266\267=\025\001\204\273\206\367\257=7\315.\275\022;*\274s\344\264=\224\344\010\275TXn\275O\337\364\274R\230I\275\353b\332:{\205\221=\277WN=@+\261<\223Z%=\021\245\341\274\350\331\276=*\304\242=\023\003\336<Cb\003\275\240\205G=\tU-=\334@{=\344\340\242=\315\222\210;\001\023^\275Z-q=\255\356k<ll|\275&\336E=\2357\375\274$y\200<G\311\013<\201\253\312\274b\'.=w\244r\275\325\355\017=\301\324>=\010\2718\275\002v\3519\213Q\226\275\314!\215\275\270e\241\275\036x\027=\215\312O<Q~8=K\315\202\275&\334\366<\021\344\237=\305\000\202\273$|\'=N\243e\275?\265\261=\246\031\346<\374\027n=\360\200U=\351?5\275\035ui\275,\017\017\275z/)=\2003j\275L\021\017\275A\276\356\274\332\336!=\007m:\273\342J>=\021\320^=\205\331o\274\325\261\004\275M\007\257=\240\027o\275z\210\221=z\256^=2\021\023\275\315\3669\275K\317+\275,\3273\273\325\243\206\275\312w\201\275\335\335\004\273\265\302K\275\263b\331<\317\\\202\275\345\006~\275\255\207\300\275I\2252\275#\367\271=W\341\225\275\334H\210=\265\350\261=\312\023\222<\310\310\261<\354U\257=e+\347\274\216\314F\275\367\320\227=-\241\232=\013{\006\275\010\235\232<\340W\222\274\005l\216\275\3271x\275![\243=\205-\227\2743M\325\274\332\341\375\274)%\256<T/\247<\005\360M<\3325\242<Is\016\275\217\310D=\364\255\211=\t\204\346<\210\250\222<\311%m\275\3074\233=\277\313\212=\241]}<\326\257:\275}\205\365\274D<8\275\264\304\265\274\241\233\266\275ye\366;^iY=\003Wt\272\000\334\200=1q\224;\360\372o\275\343\244\361\273+\351\245\275hV\205\275\000\261?\275\352\203\214=@\252n\275\240\353D\274z\213\366\274\315N\224;\246\260\243\275\370\363+\275x&\262=\031\376k;\253\255Z\275\347\366u=9\332\272=\363\251\352<\036\017\024=^ \265=\245\201\217<\202\256\n\275\025\234F=\371aA\275\361F<\274\353h\302=;wh=\322_\313\273\264x\304=\362nI\275k\366\304\275\217\362O=@VE\275a)\260\274I0$<)\322\216\274\221\323\271<\256\267d\275\352\365\247;PU\037=\006\336\020=jp\214=_\006^\275\262S\022=Ad`=\017O\340<\236\177\007\274\266\214\014\274\236\333\262\274_\'\267<&\3259<k\\~<v\177\305<P\351\227\275\264\256\013\275\314\254\215\275\2014\324\272\242\000\274\275\224\210\212=l[~\275\265\254\322\274\3538;=\205\225\201\275\302\"|=\202]\202=\020\037\254\275\345\221\263\274\357\247q\274\023\202b<\200\237\344\273-a<\275\230xs=\375\"\333\274\216\333\217\275\214h/\275\004\022\302=%\3409=\346\315n\275j\r\212\275Ck}=\262\023\345\275\345\265.<\271\000T=\377K\201<\351*\271<\203\\\376<\362n\246\275\266\321\247\273\364\177\223\275\020\331=\273\002\274\254\275\213\023{=V\nc\273\317\351\033=\200\221\204\275X\214\032\275\223\316Z=f\\\262=\013\341\024\274\216\001\"=1\220%<\\\324D=\207\031\020=\007\377\253\274\326q\"\275\364mx<l|\277=\002yi=i\2610<\365\264\274=(\275\210\273\022\005g=Z\350\255=\350\222_=B\000o\275\007\2760\275q3A\273\320\253\205\270)\007\224<\273!E=\266\035\344\273\'\002\273\274\246\330%;d\263\234\274`Z\n=yI%=\215\273`=\213a<;\232\304\237<\275\032V\274E\235\311\275\262Q\316\274\306\2004=7p\030=8\375A=\250e\212<wy\272\275\362\377\257=\264!n\274o\272\372;qqz\275s)7\2743r\355\274fh\237=\345\007\222=\310\360_=#f\317;.\226\265<g\332\303\273\210n\240=\211\367#\275[\024\344<\227`\235\275\315z\234=\206\034\312=\324\241\315\274\317\221\203=\205c#=\361\002\244\275\023\254*=\016\275D=V\214\033\275\250\225@=Q\231v\275\242\314&=\305g\320\274-\221\232=I\024\255=\202;$\275&\324\215=\246\227\016\275\177\240J\272\350\242\216\275\177\003\261<-\232\211=\225\307\311\2744\2615\274\327\'\317\274<\031E\274\213d\333<\202\002\017\275\234\314\305=\356\250\375\274\230\370\226\274\276uT<Y\027\326;\276\n\236\274\262\023\273<\027\025F\275\364\262\351=B\234z=\367\204P\275/E\225\275Ka]=\022\n\253<\035e\356<)\004\376=\021\261|=\223\262\366<\345\335\325;Lc\312\275\206\252\027\275\3111\261\275\256\246%=\007\201\204\274\027\244Y=\262\1777<\303\216U\272\010\223*=\025D\260\274!\010b\275\331K%=\256a\t\276\202f\031<Pj\220=\264f\236<\235\324b\275\257a\327\273(;\363<\036\254v\273\366EF\275GJ\257:5\033\007\275\331\325\273\275\366\325\212<\224\203\026>Kva\274\222\213\"\274V6f<\266\207S\274\332\267\026\274.+\234=\250\311\362<\232\n\212=9\257\343<,<\224:\\\325\301=\240\204\215=R\312\355=\317\241\213<\215\275\257\274\314\273\032=\207\313\245\275\374\016\t=\304\016-\275;\320\\\275O@\376<*\\}\275\361\237\251=z\301\302\274\244\372\204\274l\230\240=`\364\220\275T\210\231:]Y\022=\240Z\235<\355\356\343=7\006/=\220\016\327<\220\340\215=\203{!=\000\347:<\230N%\275O\203D\275P\222\235\2756mu=+\331\261\274\325(\335<N\211\010=\253/\206<I\351\327<\210\256\022\275z\366N=\212}\\=\343E,\275\001\232\264=\223`\246<\231U\206\275FUM\275\256\244\006<n\374\332;9Sn=\013R\310\274\312\312p\275\203\306\227=1\347\005\275\341\357h\275+\206.=\266\3509\274\007\267\243=\342\3442<\254\231-\275\355\333f<\317w<=nb\235\274D\035\306\2748\302\003\273\322\007\275\275\001\222\325\274\006u\000\275P\364d=Ny\222=\276X\331=\202\035\240\275\277!\263=P\023\315=IsO=\375\245F\275\275\366O\275c 0\274\004WV\274\270\005\227\275l&\242\275\261\201\261=\331.\351\274\247v^=\363\357\332\275\021\344X\275\310\3568<\371\0276\275\247\315\205\275\327\356s\275Hk\203\275\244\3342=F\007\325<\244\232(\274\340qi=F3H\275\326\016 =\366\245r=N|\241\275E6\250={\2035\275\245\205\221=\231\323n\275;P\215\271R\'\220<\201(S\275\311m\214=\035\003V\274>\320\365\275l\244\366\274}U.\273n-\251\273|\3079=\264\220~=e\345\r>\000\226\222\275\253\307\241\273\260\2022\275\337)\222<!\026\220\275\376\242\260\273\t&\240=\372]\303=Z\275K\275LQ\035=\346\322h=pq\256\274=G\247=&\353\266\275\"\273\265\273\037Vz\275\251\275\244\275\277&\242=\024\227\241=m\304\004>\244?/\2756}\211<\332l\314<\334/\033\275\311j\014=8\305\\\275\033tm\274\346\325\203\275\270\254\351\274T\241\200\274\332\227\226\275\311\205\276=\000H <\322Rb=\215\216\232\272\353\032o=R\333\240\275\\D\320<\312o\201\273\034aD=\037Z\017\275\357\277e\275((R\275g\014K\275\371[\030=\320\205^=\335n\025<K`r<\325S\245\274\351\301\023=\203m\016\275\300\365\335;\220\314\022\274\022N\207=\336\353\315\274\277w\230\275f\271@\275@_\022\275*rI\275I\323\257\275 I:\275\360\366\301<n\235\361\275k\331\275\275\304\231\267=\264\030\264=\330N \275_\003\231\275j\233\253=y\333\316<\230\006\002=\353\343\220\275\261\356?\275wt\005\275\321\t\014=pZs\275m\256==\374\246\022\275\351\330\343<\265\274N<^ j=|I\223\275z\032\307\274\025\026f<Ag\316\275\016J\257\274\246\260\270\275\005\356|\274\342\362\257\275@\037\333<\275\302\223\275\010\267\016\274!5\025\275\210\257\023\275m\373v\275\357]-=7\242\036\272\246\211X\275\2453~=0\250\330<\207\020\255;\263\265s=H\000\321\275C\021\204\275\277\364\201\274\364\227s:\234\363\222\275\322\\\234=9\003\034=\024(>\275vb\035\275\344\226&\275s\362`\274\325\351\221\275\3502\332\274\025\347\241=F\270\232=\330K\301<\000\254\356\274\257\305\264\273\255\250\332<\374\366\216\275Q\216.\274!\373\235\275\256\262\033\275!\001`=g\214\367<\255\256B\275QE\010<hK|=/(2<\333\365\263\274\311\030\277=(\002\325\274\024\315R\275\276\267\016=\325\347\210=jt\243=\262\3621\275^\322h;\344\236\356\273s\245a;\027\367\363\275\036\210\205\274\300\371\313\274\006\010\020=\t\025\275=l\256\214<\035\243\265\275.\311_\274\241\244\337\275J\317<=\322\311\276<\244\\n<\022\215\301<\3464\031;\243i\206\275\303}!;(R\013>nW\332\275X\224k\275\345%+=.\034 <\350\252\301\273\004\265:<8\370\004\275_B\211=w\361\240\274\363\203\037\275\353)\021>\246c\000\275R_\360\274\247\203K\275Z\316&\275\026J\t=\255\016\014<\253:\214\275\212%\250<\035\367\024>\357\244\223<\232P\260<\177\340\035\274\207\003\003=~a\333:\256\212R\275\275\"\214<W/\306=_y.=\354\275\344\274o8k\275\017\273]=\213\262\234<|\213\364\274\321\252\227<\210j\r\275\265\205\024\273\013\367J<X\225\361\275\013\365\266<\256\356\244<x\010e\275\017\210&>\237\245\"\274\323\305\215\273\006%m=x]\244=\234\237n\275\312hG<Zg\024\274\372\340\327<S\271\256=\214\270\333\274x\031\230=r\214\236;\035\344\223=W\0322=\362\204\212=o\276\231=\251uk<\3244\222=\306L\206<t\017\261=\320%\222\274|?\355<\255Sb=\2578\341<z&\224=\330aY=O\013\245=\227B\004=\243\022\n=6\tm=\210\352\353\274\307_\242\275\211y\365<\017\034\240\2755\n\370<Zd\216\274>#\n\275.\353\022=\230\207\000\274\325\331\225\275u\236\016\275\241\256/\275\374\000\332\273\234pM\275\221\272\236=fC\302\274\00302=\250>-\275I\'1\274K\006]<\214\303\r=\277y\004=\247_\353\274$\321i=[\274\320\274\035%J9\257\212i=p\"\035<6\200\270=\331\205@\275\321\013x=\217\375!=\235\301|\275\222sm:n(\212\275\262\316\201\274A\314\026\275\310]\250=1\251\001\275\022\367\264\273\351U\021\275{\237\242\275\270\206\215\275\300\\\222\274\225V\364\274S,\223=\025\036\024<\325\2416\275g\277\230\275Yxg=\336\267Z\274\217U\221\275\002\373\225=\3777v\274\276\204J=\276\202\206=\010+\241\273\035\016\213;v\357\234<\257\033L\274VL+<\203\024\322=\214h\004\275\033\034\010=\241\215\354<\235\233\341\275\260\005\213\275y\361\010=\024\356\346\273\314\365\323\274\347\240.\275\017\021<=E\211\215\274\323[:\274;\272\306\275\013t*=;\224\201<\363\316e=V\002<\273x\372Q\274\n\024c\275/\302\351:\244+\036=\036\236\251\275\374\222\3719\203\024]=\211\n:\2755D\245\275\260\363\277=\346\366\250=%\341\014\274\026D\353\274\265hQ<;[\223=\215U\265<\000\204\343\273\374D\034\275\0231\266\275\0061\215=f\300\037=\342\371\233\273\212\251\213=\025\206\253\275\250\005V\275\235\235Q\275Wj\276<wPC=m\030Y\274\n\315e\275\277\353%\275\213\000&\275\366\341\233=\035\256`\2754s+=f\327P\275n\006\273\275\360\312\024\276\004\334\210\274[\3744={\355\225\275^\210\200\273\302\224\250\275)UC\275\206\001\205\275\343\321\335\275K\205\233<\221\305u<\271}\'<x[d\275_\314\r\275g\331F=f\260&\2747\346p\275\327\236\226\275\270\277\203=\204+\035\275F,\017\276\216%\270\274ps\361=\312\247\277\275\240\352\371\274\312\245\355\271\253P\344\275\375<\314=\317\344\261\2758\353(=\364\336\343\275&my=\271\026\331=\336\366\003=k\226\274\275\327\252\277\27548_=\206`\222=\026\307\344=\227{\205=\262mN=G\244\324:XC\247\274mx\312<\3700\256\273\306\237\n\275\214\037p\275\303<\246\275\001\213J<\037\222\207\275\326\245\215=\026\241u\275k\204\201=[L8<\2249\273\274\326!\017\275Xd\200=\225\227s\275\374\371*\276\204\234y=\n\227\276\2729s\024=\347\250p\274\326\203\236:B\376\357\274i\002\270\275niW=\"j\362\274<\221\264\274\"\232\204\275\007\336\201\275\2356\360\274\221\244\231\275\356\2473=\3275\224\275#y\231\275\241S\213\274N\326P=ZU\243<\360:;\2751,|\275\240C>=}\344\322<\353uf\274\351\342\222\275X!\246\275\3652\265=\022EY\275\313\265/=\0277\276\275(\326?;\rJ\263=]\177\311\275\034\332\375=\214\312,\275\002C\217<\312R^=D^\016>\014\251N<\016\265\231\274\267/m<\313o\220<M\337\003>\330\332\304==W\332<\010\000H\275\t\rq=J\331\232\273b\254\374\275\344(\347\274\367\253\342\273\233L\031\276$\371\005=[\226\223=M\016\241\274//\034=\030\nC\275l\205\311\275J\241<;V\274\330\275\'\306\244\273\345\256(=\245S\356\275J\234\325<\304\276k\275?\303p<\304\205t=\241\343\260\274%\362r\275\364\330M<\377\365^\275 \246\226=R\360\317\274\310\331@\275f\300\244;;(\365\274F\252L\275\207\331\312=+=\245\275<56=O\277A<+\024/\273\347s\300\274\3039W\274\352\021\243;k\224\206\275\305a\235\2750\353\264\275\034F~<\332\212\364\274\214Tv\274c\330(\275[n7<Cp&\275\232\317\211=\305yL\275,\353e\273\020OU\275\3147\334<\325S\265\275kuC<\206\037`\273\241\2601\275\352-\256\274rQ@=\230\026r\275\270\332\231=\270=\232\275=\342/=b`_<:\247\240=T\261\301<\327\026\321\273\341N\'\275\031m\000=\261\021\265=u\"\206\275|\005=<\207\365\032=\2307a=\026\265\004=J\254\324<?\230x\275\213\312\020=w\334\301\275\234\2268\275\220\350<\275o\322\"\275\254\232\021\275\211>\'=\266\317)\275\315#\326\275\2236!=\3628\244\275\030\331\307=\301\024\254\274\260\346\036\275R\372\366\273\027\006\342\274R\025\240=\225\232\017\275\341b\377\274\243\273I=\315\252\'\275\301Rt<\313:\036=&\034\001\275<\363\005\275>\302\242;\216\257\357<r\0226\274\035\263\220\275GM\003\275;9\267\274+\313:\275\0149\210\275!\\q\275\225\037\177\274\234\222$\275;=\202\274\264\373\247\273\2049\304=M\333\316=\251o\221\275G\336\251\275\213\034\035\275Y|\261\2748\211\320=\274b\216=\27576<\000\371\010>\307\227\237=(%\222\275s\3670\274\n\233\023\2753\234\265\275\031LS=\352\276\372\274B\205\'<6*\340=\256\016\264\273\273\260x\275l\213\277=s\034\240=\341\335\316\274\361\245\220<R\266\304<\305\226\231<\235\262\363\275\022\343\342=\017\236/<\231\233\007\274\347U\016\275%D\024\275\300\3071\275Jy\021=M\221^\275\205_\240\274\215\350\212\275\260K\347\274\200\365\275=7s\306=&\210\362<o\237\220=\203\007\313\274d@H=\206#\201=\212\350V=\236\375\320<\357\277\214\274\007Q\"=4Ai=\n\215\231\275O\326\354<\301\036N\275\036\213\037\275\034\204\343\274\376\277\007=\016\221\375\274\352\372\345<\320\205f<&@$=\375\324\237\273;\366\243\274m\256\034\275\025\304-\275\356$\303\274\330\376\210\275@\364\006=#\340e\275\205\305\253\272\316\014E=5\033\270;{\361S<\004\005\230\275\t\002\236=W\245\014\274}\253\303<\243d\256<\236E\363\275\240\004\001\275\327\341\212\275\360\332\300<\035\276a<\037\307\354\274\212%\316\274\355\311\r\275ja\333\274\326J3=\235\252\203=\314\215\353<\366\362\251<\346\255\335\274@Y\235<p\255\304\275\203\303O\275!\335\353<\204(\223\275\237\001Z=!\312\003\274S\355\241\275\253\331k=\363\030\273<\242\341;\275Y\300\225<:\013B\275\330\360c\275o\001\210=\232\336Q\275\270\005\277=>\221\255\275\315\366\306\274\351\217\305<\n\005\326<\341Q\035=,V\017<$d<\275{\2111\275\200\000\016=\022\201/\2751\356.\274\272\000\257;\353l\021=\022\355\215\2750\246\214=:\243\326:\213\221\032\275Z9v\275\353L\342\275c\305\255=\251\322\235<\375\000\247\275\372\260\212=M\203\347\274\320\362\341\273\2069\317\273\233\244\231=\010\317\334\274kt\354\274\210g\253\275\333\361\334<\025\261\257\275N\017\204=\321\271\220\275\253\223\025\275k/\024\275\337l\333\274\251\335 \274w\356\024=X\350\210=\000\217Y\275\0319\243=w\001\234\272\205\003\227\275o\300\247=]\222\024=/y\263\275//\262=\023\007y\275\316A|\274\245I:\275e\227\234\275]\001\302\275\340\310\225\2753f\313\275\374*\233\275\251Yw=\025\260\310\273\376\232\003=\321v\247<\344e\336\275\2231\350\274\266\373\013\276t\200,\274\372\274E=.\204\251<1\333\017\274%\222\242\275\224\023\330<~Ln<\006D\225=\035\372\"=~\303U=*\344\227=\263\202\237\275\207\344\177=\220\0060=\ns\351\275\343K\000\274\273\242\356;A?\245=\211O.=\203^\333\275\362\026\347<\340p\014\276d\355\'\273\350\335\016>(\267\321\274\035\332\017<\253[\221=@\307\003\275\t\260\341<\312\2341=\233a\003=\262\010 \274\352\036\257=\ra%\275\315\300x=\000/4<\374f[=\3244\322;\241R\214\275\267\271D\274\'\330\210<]_.\275!\317\r=2\020\013\275\363i\034\275\244\205\357\275\363A\337\275\345T\272\275\236\345\200=\336\245\370\275?\347\203\275 \277\000=VZ\241\275\035ci\274\031w\223\2755oy=\322*\230\275\244o\301<@\235\304=\\\320a=\256\335\261=\210@S=\021\247J;v\306\373\273\005\335\024\275\315\242\217\275-\367\244=_\354<=n\333\264\274V\021\206=\017\207r<\213\215\235\273\032D\253=3\222\270\275\330\007\032=\002]\010<\204F!<C\253R\275\257\371\233\274\336\221\240\275\2774\261\273L\341\243\275\217\353t\275_?H=@\010\362\273&\032\341;\335K\240\275\262\220\t=%E[=q\213F\275\010\201l\275U\363a\275{\321\252\275\024-\245\275\030\2734<\031\234<\275\030<\222=q\326\213<\r\344\036\275\254\365C\275,\213\237\273\3374^\275\366\020`<\272%\250\275\222\325\204\275l\013\307\275S\316\277=\036\313B\275\326\365\235\274\241_/<CA\305=\002\370\263\2758;\350\274\033B\333\274\013\211\232=\036vr=M\254\270\274\002\247==G\314\204=Iz\232=\255\213\277\272h+z;\222-E\275\225S\233\274,\204I=\344\234I=r\357\200\275\\\226\377\2747\343\304=\361\306\202=V\013\217=\355\036C\274\235\357\315\274\360\023\262\275\367\324C=H\274\302<\334\224\214\273\353\020\217=b\216\177\275\236\201C\275\377\252u=,\305\307<\000\323\275\274\275\376}\275Z\350S<%\315X=p\366\n\275m=\210\275\030\227o=v\363\305=\034[\320;n\021\334<\005\361*=\325\214Z\275\032&\257\2756\340\351\274\354M\003\275oa$\275`\212\223<\357u\341=\244c\227\275\271\313l\275*\372D=\352\252\206\275\362G\260<i\r\320\274\250>l<[\336\'=I\254\226\274\305\373\360\274\273\3671=H\016\212\275\251\003s=>\210@\275Vc\216\275d\r\272:JR\316\274\302\353\266\275\364\300?=\376\303f=\243\327S\274\004\323I\274]\271Q\275o\375\030=\225\355\247=\370&p;\212\010\201=7:\030\273G/C\275c\346\224=\313\320\353\274H\246v\275F\300\333=\007\366v=[\371\r=\032\232\235:\310\334\272\275\023\302\351\274*\033\242=`\rs=\302\254\020\274\306LQ\275\010\007o\275\210\257J=0\003e\275\020\307\317\274\317\246\325\274\263\254P<\031\322\216\275\322\017\240\275\357\273q<i\'D<\034\274v\275>\342\234=\3329\227<\211\355;\275C\0017=V\331\203\275=)8\275\375\256\350<\302\177+=\316+\025\275\213\270S\273b)b\275Q\373\010\275*c\262\275N\235\307\275Y5|=\265\035\240;D\341\022=\373\312\177<\267\017\314\274\r\013\373<\244n\235;\367\260\177=jU/\275C\017\226\275\251\0359\274\333?b\275t\177\207\274\017\214N=k\2465\275}\'L\273\314\265\247=YY~\274~\210C=n\347e\275\264\035\270=\360\312\022\275I+\267\2756\253\204\275\334\010\214\275\034\327;\274k\355\245\275\360\004\220=8\007D=\341\247\237=\350\016\200\275\221\327r=\000\373#\275DW\221\275\3536\210\2732xy=*3U\275X\326Z\274#\tH\275\025\t\037\275WR\310\274dK\257<H\371\313\2756\312O=\273\345\343\273\365.\\=O\300\270\274\332j\214=\032B\203\275\266\332\021=\0309\241=\374\375\244\275\272l\210=\251\230\221\275\320\303\260<\004\266\303\273\352\216v=\377\237Z=b\246\302\275\301\'\204\274\026\230Y<\254\216\273\2751\230\336;oC\224\274\215~\233=\341~\212\275\261\243\233\275\351a\035=,N\177=\205E\205=(f+\275B\023U\275?{\007=7\0277<e\365\210=\340\023\n=\321V\212\275\025m\261=\006\213[\275\321.\223=\266a\377;\331Y_=\377\326\263;\326w\031\274\247UH=\262\237\264\274`]\350<\226\213C\275Kc\202=G\264\343\274S\251\254=\242\335v=\250\354\304;;\364\217\274\333\211\246\275p\177\335=\265vr\275\350s?\275\2765\005;d\366L=\000\214\220=\343.y=\333\245\233=\266J\034<\363\255\242=T\202\200\275\365&\252\275\215`\212\274\342S\3739w\177\254<\267\325\250\275\345\016\034\275yZ\273\275\271\204f=\347\320\224\2739~\213\273\r\247\027\275\345\001\032=\362\013t=\224\303E\275t0\341\273\005\364_=\355\000u<\367/w\275\302\034\225<S\014-<m\223\236\275\265\307\366<9\331V\275\364\224\010=\036\354:\275D\335\257=\0307L=\002\001\365<^\350[\275W\244R\275;\021C\275\004\r\017=\023\014E<`\312\214<P\330\035\276\212\346X<7\200\032\275\034\320\253\274|\210J=\260\305\215=\351\237\003<D\235[\275;Q\217<w\334\206<Z\323\267\274l\254\014\276\242\330\266\275\206\362\307\275s\025\n\276\357\2405\275\362\357+\2767\017y={\226\354\274M~\310\274\220\306\350\274\261\252\274\275Ax\253=X\254\206\275d\272\010=\377\367\253=a\274!\275QO\214=\206\017\324\275\035\315\203<\250\334\355<\211\021z<\244<0=\232#\031\275C\304\206\275%\267\247=g\\0\276\370O\007>\024?{\275\004\243\336<\n\360\251=-\3563>\t\370\241=\307\326\327\274\"\255\223=1+a=\035\0361=\030\316\313\273J\210e\275\211\333A\275\'\t\003>\207\261\310\2746U\272\275!\271\003=\314\235\206\275D\022\332\275_\244\210\275d!\241\275\307\365\214=\013\272\204=\226\252\247\275\375\253\'\276\304\007t<d\264\202\275\257H\230\275\312%\245\274N\"\312\275\235+\035=\256k\315\275|AY<BQ8=\305\030\230\275\324&0<g\0050=\273\250\346\274\215f|=\263#\217=\324\275\227=\017\357\260\274\307aL\275V\342\373<I\007}=\261\317\221\275\265\236\005\275\345q\376<\327,\217\275z\204,=\024:Y=z\017Q=\372\236\271=\032v\204<G\331\204\275\344\260\367\273h`\332\274\207\2608\275\275\264\353\274qkM<\017\310c=vs\351\274\235-_=\206\036\216\275EP\342\274\231\366B=\214\352P\275\026\217\037\275T\353B=\207\236\014=\343\022\306<3\207\250=.jw=1M\213\275\330Rv= 2E=0ya=\216\357\371<\251\204\237\275\3019\255=\177\303\362\2749Z\036\273\020@\250=3/\222\275\257\263\334<\'\376R\275\244x\025=\375Aa=\342\021\256=\352\202\217=*\255\217=PX\221<\0244\374\274<\035\271\275)\232\010<\31190=\227v/\275r\256x\275\030vR\275\256s\204\274\267\314.\275\023Fu=\231\373\326=\324\250\323<\310Nc\275\336\251#\274c\251<=\343\312:\275\324=\306<\037t\302;\006R\355\274\257\373\374<\370L\243\275\221~\000=Q\237\214=\211\313\224\275V\203~\2758O#;y\265$\275\360T\240<\304\253\255\2740\322\313\274c\246\207\275\243\351\234:o\335a<\345\214\220\274\\ \321\274\337\320y\275\022\274>\274\210`\266<n\237\205\275\305(\350\273\\\361\n\275\206\020\247\275\325\272^=\240\005\255=L\230W=\343N\304<N\355\356\274\340?T<xn\320;\2316\362\273\250\252\260\275\351\212\265=-\330\220\275B)\214=L\261\021\275 \3260=A_\376;W\035\n=\360\020\245=\367\264\023=Y_\033\275li>=\351p4\275\364\265\372\2753j\250=\364c\224\275\267\333p=\' \226=gq\205<c\370l\275\332s\315\273>\3523\275k\373\204\274=a\323\274\3562n<\203_a=\362\225\231\274\3151\034\275\241\311\253\274HbX\275\342n\327<\370\014}<\371_i=- \366<\257\\\017>\007\260\031>\372\010\033\275\272\363\337<\210a\261;\345\353\325:[@\255<b\275C\275\263Z(\275A,\235<\373t\340<O\242\202=M\t\001=\240\212C=\272\262@\275\252h\263\274\305]W=\030\247K<\035\177\303=\334\177\257=\206\024a\275\261\r\030\275\003\032\025=*\365\214\275\304\270F\274\364\300\303\273,T(;\020_!\275T\323\270\275\330\240\224=h\232f\2750\327\326\273\372\253\273<\302\252\227=\330\215)=\364\373\300<T\315\307\274\240\244\242=31\263=\314\250\223=\316d\325\275\360\301\345<\365\304%\276\263\n+>\352\243\357=\346\005\347= j\221=\2742\307=\324Y\334<q\357T<W\227y\275L+\241<XC1=F`\336=\217\345\"\275\322,\263=\336q\032=f+\270=\261\243\2379\004Q\324=Bs=\2752\005D\275\321t\207\275\241A\356<\331c\324=\25425\274\336\375\374\273X\343z<\201\033\270\275\300\214\\=\370\331\345<\303\227f\275G\230\335\2749\023\006\275\320\036\276=\0006\036=k\226\304\275w{T<\263>v\274&\211A\275\310\210\313\275\327\036S\274Bs\366\274\270E(\275\272\315\277\274\372\365H=\224\370;<A\364@\2759\231W=\352\257\000\275]R\231\275\317;#=\301\257z\275\353\234\226\274\265P\301\275S\243\214\274\322\t\327=G\335\364\275@\270\036\2767\254\000=K\"\200\274\177\321\023\276\371\307\266;dp\362<z\222\222\274\226^\362=\365\017\026\275\362\367\036\275~\367\221=\227\331\347;\324\225E\275\227\000\325=c\301&\273I\200.=\224u?\274\024v\321=;e\343\275\361\353\201\274\262D\004\275\204L\030\275\0305;<\210\267\262=\231\200\237\275\342r\356=\361\310\326=\350\025C\275[\276\251=\'N\217<=\357(=\003\277\350\274\247>\376=,\271j\274\245D\213=e\376q\274U\002N\274\037{R;\014f\266\275\377\312\221<\304\250\316<,\200!\275\027\024\375;\034M\021\274C\",\275B4\270=){\264\275\332\255\257=\207\220\025=%\212\031\275H\326\017\275\242\347\027\274\205\270\020\275m\310K=X\364g\275\261\343j<I0v<c\236\305;\255\345\262\274\377\037\006=2f+\274\342\273\201=D\036\306\274\005iT=J3\371\274\320~3=\256h6=\210L-\276\355\2146=Q\372\n\275T\356\013\275Y9\r=\231\310Q\275\373\312F\276\231\204M\275\013\267\372\275D0\027=\353%\003=\340\245\341<\351bN=\270i\351\274\014\"\201\275\306L\245=\202\316v\275*b\332\274\271W\026=p\240\365\273!\264\n8\326\245\225\274\371H\356\274\335\303\226=\333\027\255\275\242\272\032=\346\206\346<\\\017\357<\000T\354\274\006\364\221\275\030S<\275\264\333(=\372eb=\236k\217=\300\214\242=oLj\275U\202\001\275sK\224=\263\325\254\273\002p\327\273E\275h\275\256_\243\275\207\253\031=\013?\206=\201U1=\253\221\216\2752\335!=\332I\002\275\037\337\256</aC=\221\216\234\275wfN\2758\352C\275\361\275#\275[9\243=\371D\320\274n\224N<\021\341\231\274d<\025<\033\307\251\275\'\253S<\036\333\254\274\210Z\300<\001\025\353<\276\037\273\275p\270\256\274b\214\002\275 k\226\274?\222$\275u9]=\250\013\033=\n\350\347<\001\240\214<\206j\265<.\332Q=\262\321\026=\001\3240\274[\317\250\272\326R\240=\006\207p=\005\223\242\275\273\220A=\267w\006\274L*\342<K\324\233<>\340\265<\005^\243\274\345v\032\2752\273s\275\260D\330=\345\245\236=ql\317\275O/\202=\335L\366\274\274!\035<\236%\314=\367\365\304\274\206\010\246\274r\'\213=\340\010\233=\255\251\247\275\220nw\275\\\236\236\275=\016\252=\265\246V<\355\004\343<|\357\206\275R,\217\274I\221\027=u{j=3\337g=\332%\216=\032(\301\275\345\342\211=\315`\210\275u\261\257=nr_<\355\274\204\274\343/l9\2172\334\273\344YZ\275W\300\255\275\216\256\253=U\202\211\2756w\216\275y\245\247\2754%&\275I\254L<\251&\204\275\n\257\026\274\325\345\350<\203\0175=\311R\371<\203\300D<1O,=a|l=\371/\310\2750C\235<\205\275\234=\373\023\265<E\277\203\275\335\350\350\2731\346\234\275\034\034Q\275\334\277\232<E0\377<\206\244\202\275%\233\240=\313\311\267=\007\204)\273]\364\241\274\2458\261<b\001\217=\257\322`\275\204\010T\275u\3543;=\337\235\275\221\273\\=/t\333;\361\213\356\272\375h\230\272\215\342\224\275\255\346D;\236x\324\274G\032\n\275f\205\366\272\022FA=\313\300L\275\274\266\217=\263%S\275\247\2605=w\334o<5\274\r\274\013|\345\275:\210K\274\372w\"\275vk\235\273\341H\006\275\243\3330=\210\001\350\273\322[D;r]{=\302\352\300=\261bA\275\364\215\234=\257\232\261<\301,\331<\246AA=/\"\316<N\352\225\275\254\004N\275\213\206b\275+(\'\274\365\257\255=\214\205\266\275\245\210\266=!\307\225\2752\265\023\2751\246\231\275\230\300i=\022\341^\274\260c\226=<\035\222<x\203D<\013\315\305\274\342\207\276\275\017\314l\275\203\rO\275\304&\227\274Hr\342\275\257p\340\273\261\\\200=\257\010A=\321Gu=\274\311\215\275h\177\220\274\003p;=V\247t\275\211\017\247\273i\226\317;\254\276\t<\177\350>=\216\024y<\225c\344\274\230\257==\376\207@\275\231\356\230\275U$n\275\276\324\314\275\no\375\274\033\257\321\274Y!r\275\r\270G=M\254\224=\254\347Z\275\341\2268=V\253\000\275 \242c<\003v\215=er\010=\241s\270\274\361[\247\275*\346]\275\r\310r<$T\204<O\332\275;\301|@\275\204\023\244\275\227\376(\275\351\317E\275z\237-\275\023\300\270\275-\t\245=\346\313\370\274\257%\216\275\350\336s=\311*k=\245\232\027=,z\034\273\343\023\250\275\212z\264=\311\364\331\273\277\013\211\274\033\3500=\315\261\233=:\270\271\274s\016\177\275\2519\034=F\005\005<\245\327\363;\300\"\223\274\221W\276\274\252\336%\274#l\324:oY\336<\016d\232=,\177\233\2744o\002\275N\210\237<\300q|=\330Z\356:W@\376\274!G\237\275[\224>=\005 Q\275\252>\273<\r\370\216\275VE7=3\221\235\275\003I\212\274\250\235\217\274\353\341n=\340\234><[\303\221\275`\007\312=$\\\\\274\351\244\207;\302/\337\273\3658V\275\272\212\'\274\330\252\306=\026\035,\274d\003E=#]\213;\247\337\230\275\353B\366\274\'\254\330\274\321\306\264=\373\250\375<\250\377a\274h\344\223=\254-o=V\'\307\274\177MU=)\246-=\320&\205;\035Wm\274U\332\226\274\217\330\031\275\36773=\301\032\255\275!-\336=\310\320Z\274\375\364\225=\303\365B=x\025\244\274\007\316a\274\231\\\225=\254\271\243\275\366\0135=\202\345\202\275\241r}\275\273\224\237=\225w~<\366I\013<\276\256N<70\014\275&\377\203=\274O\242=95\024=\270e\200\2759@\211\275|\023\214\275#H\'<K\001\251\274\010>\000\275\213fL\275\000\327B\275\224\352\250\275+\376\271:\351\346\372;lT\367\273\252\225`\274\325,\'=y\237\205\275l\272\364\274\322\032\263\274\r\026\005=BO<\274N\030\020\275m\026E\275\274\217y\275-L\r\276\243\231D=\027i\204<\230\233}=\272\357\266=l\026c=7\374\275\273\265\365\222\274\335\006\017=\261d\261\274\324Px\275U\257\276\275\277\003\222=G\203\200\275\000\330o\275\035L<=/E\216=\016\366\202\275\0142\017=\264\037\314\275@\201\"=\026\217\001\275?\r\213\274\347R:\274\177\206B=\372\3756<b8\267\274\263B\301<\261\331\214\275\235\274\200;\245\2736;\257\303\236=A\177\214\275\253w!<-\"d=\313\257O=\302t\000\275\021\335\023=4[\234=\226\000\371\275\325\263\252\274\023M\273\274\244\263\201=\354\301\366<\003\201\337\273\342\300\215<\230F\307\274C\357\253;\255\233\014=\323\302\204={\305\221<1\222\020=7\233\221\275\r.R\275\032O\247=2\215n=\307\237\200\275K\'\242\275\026U#\275l\006\230=\211?7=\335\004\007\275\201\014N<\304R\016=q(2\2752AX\274My\302=VC\356;\322C\256;\365Z==\315~_=\0216\014\275E\265\203;-\300\014= \212\263=\231\213&\275V\325\204\275\030\304\001\275\346\265\237\275\017\275\242<[\365\230;\005\244\352<8\374O\275\362\203\033\273\340e5\275\350\224\257=n\250\371<\325\347\031=`\341\212\274\244/p=\257\005Q\274f\320j\275\231[\034\275\324To=\314\nx;\233Zb\274\236\304\310=\266X\262=\257R\017\274F\247\216=\230j\237\275\274\334\242\275U\343\253\275\332\006\022=/\031!\275\177\330!=\212A,<\300\330\246<\324\372a=\260l\026\275a_\335<\213\256\241=\007\325;<\247\364\212<h#v\275\014q\200=\371\371\321\274h\241\361\274,